{
  "</s>": 0,
  "<unk>": 1,
  ".": 2,
  "\u2581the": 3,
  ">>ara<<": 4,
  ",": 5,
  "\u2581of": 6,
  "\u060c": 7,
  "\u2581and": 8,
  "\u2581to": 9,
  "\u2581\u0641\u064a": 10,
  "\u2581in": 11,
  "\u2581\u0645\u0646": 12,
  "\u2581(": 13,
  "\u2581-": 14,
  "\u2581a": 15,
  "'": 16,
  "\u2581\u0639\u0644\u0649": 17,
  "s": 18,
  "\u2581for": 19,
  "\u2581that": 20,
  "\u2581\u0623\u0646": 21,
  "-": 22,
  "\u2581on": 23,
  "\u2581I": 24,
  ")": 25,
  "\u064b": 26,
  "\u2581\u0625\u0644\u0649": 27,
  "\u2581\u0648": 28,
  "/": 29,
  "\u2581you": 30,
  "\u2581The": 31,
  "?": 32,
  "\u2581is": 33,
  "\u2581with": 34,
  "\u0629": 35,
  "\u2581\"": 36,
  "\u0627": 37,
  "\u0647": 38,
  "\u2581by": 39,
  "\u2581be": 40,
  "\u2581\u0627\u0644\u062a\u064a": 41,
  "\u2581as": 42,
  "\u2581\u0639\u0646": 43,
  "\u2581it": 44,
  "\u2581\u0644\u0627": 45,
  "\u064f": 46,
  "\u064a": 47,
  "\u0651": 48,
  "\u0647\u0627": 49,
  ":": 50,
  "\u061f": 51,
  "\u2581\u0647\u0630\u0627": 52,
  "\u2581was": 53,
  "\u2581\u0627\u0644\u0645\u062a\u062d\u062f\u0629": 54,
  "t": 55,
  "\u2581are": 56,
  "\u2581\u0645\u0627": 57,
  "\u2581\u0630\u0644\u0643": 58,
  "\u2581\u0623\u0648": 59,
  "\u2581at": 60,
  "\u2581its": 61,
  "\u064e": 62,
  "\u2581have": 63,
  "\u2581this": 64,
  "!": 65,
  "\u2581not": 66,
  "\u2581United": 67,
  ";": 68,
  "\u2581from": 69,
  "\u2581\u0627\u0644\u0623\u0645\u0645": 70,
  "\u2581\u0647\u0630\u0647": 71,
  "\u2581or": 72,
  "\u061b": 73,
  "\u0627\u062a": 74,
  "\u2581\u0645\u0639": 75,
  "...": 76,
  "\u0640": 77,
  "\u2581Nations": 78,
  "\u2581": 79,
  "\u064a\u0646": 80,
  "\u2581all": 81,
  "\u2581an": 82,
  "\u2581.": 83,
  "\u2581\u0644": 84,
  "\u2581\u0628": 85,
  "\u0650": 86,
  "\u2581\u0627\u0644\u0630\u064a": 87,
  "\u2581which": 88,
  "\u062a": 89,
  "\u2581their": 90,
  "\u2581\u0627\u0644\u0644\u062c\u0646\u0629": 91,
  "\u2581You": 92,
  "\u0643": 93,
  "\u2581Committee": 94,
  "\u2581has": 95,
  "m": 96,
  "\u2581A": 97,
  "\u2581It": 98,
  "\u2581In": 99,
  "\u2581\u060c": 100,
  "\u2581\u0644\u0645": 101,
  "\u2581me": 102,
  "\u2581'": 103,
  "\u2581will": 104,
  "\u2581been": 105,
  "\u2581had": 106,
  "\u2581\u0628\u064a\u0646": 107,
  "\u2581States": 108,
  "\u2581\u063a\u064a\u0631": 109,
  "\u2581\u0648\u0641\u064a": 110,
  "\u2581we": 111,
  "\u2581\u064a": 112,
  "\u2581\u0628\u0634\u0623\u0646": 113,
  "\u2581\u0627\u0644\u0639\u0627\u0645\u0629": 114,
  "\u2581were": 115,
  "\u2581international": 116,
  "\u2581\u061f": 117,
  "\u0646": 118,
  "\u0648\u0646": 119,
  "re": 120,
  "\u2581\u062a": 121,
  "\u0645": 122,
  "\u2581should": 123,
  "\u2581also": 124,
  "\u2581would": 125,
  "\u2581other": 126,
  "\u064a\u0629": 127,
  "\u2581can": 128,
  "\u2581\u0627\u0644\u0639\u0627\u0645": 129,
  "\u0646\u0627": 130,
  "\u2581\u0643\u0627\u0646": 131,
  "\u2581\u0627\u0644": 132,
  "\u0628": 133,
  "\u2581\u0645": 134,
  "\u2581\u0643\u0644": 135,
  "\u2581Council": 136,
  "\u2581my": 137,
  "\u0647\u0645": 138,
  "ing": 139,
  "\u2581s": 140,
  "\u062f": 141,
  "\u2581development": 142,
  "\u2581)": 143,
  "\u2581do": 144,
  "\u2581\u0647\u0648": 145,
  "\u25811": 146,
  "\u2581your": 147,
  "\u2581out": 148,
  "\u2581\u0639\u0627\u0645": 149,
  "\u2581\u0648\u0627\u0644": 150,
  "\u2581\u0623\u064a\u0636\u0627": 151,
  "\u2581rights": 152,
  "\u2581countries": 153,
  "\u2581\u0627\u0644\u062f\u0648\u0644\u064a\u0629": 154,
  "\u2581he": 155,
  "\u2581\u0627\u0644\u0625\u0646\u0633\u0627\u0646": 156,
  "\u2581\u0627\u0644\u062f\u0648\u0644": 157,
  ").": 158,
  "\u0648\u0627": 159,
  "d": 160,
  "\u2581We": 161,
  "\u2581know": 162,
  "\u2581\u0627\u0644\u0639\u0645\u0644": 163,
  "\u2581report": 164,
  "\u2581\u0623": 165,
  "\u2581\u0627\u0644\u062f\u0648\u0644\u064a": 166,
  "\u2581\u0623\u064a": 167,
  "\u2581\u0623\u062c\u0644": 168,
  "\u2581\u0625\u0646": 169,
  "\u2581they": 170,
  "\u2581one": 171,
  "\u2581\u0642\u062f": 172,
  "\u2581\u062c\u0645\u064a\u0639": 173,
  "\u2581right": 174,
  "\u2581\u0623\u0646\u0627": 175,
  "(": 176,
  "\u2581under": 177,
  "\u2581resolution": 178,
  "\u2581what": 179,
  "\u0640\u0640": 180,
  "\u2581\u0628\u0645\u0627": 181,
  "A": 182,
  "\u2581\u0647\u0644": 183,
  "\u2581work": 184,
  "\u2581about": 185,
  "\u2581there": 186,
  "\u2581What": 187,
  "\u2581\u062d\u0642\u0648\u0642": 188,
  "\u2581such": 189,
  "\u2581\u064a\u0627": 190,
  "\u2581\u0627\u0644\u0623\u0648\u0644": 191,
  "\u2581human": 192,
  "\u2581\u0627\u0644\u0645": 193,
  "\u2581including": 194,
  "\u2581Assembly": 195,
  "\u2581General": 196,
  "\u2581\u0627\u0644\u0628\u0644\u062f\u0627\u0646": 197,
  "\u2581his": 198,
  "\u2581women": 199,
  "\u0644": 200,
  "\u2581up": 201,
  "\u2581\u0644\u0644": 202,
  "\u2581but": 203,
  "\u2581\u0644\u0642\u062f": 204,
  "\u2581\u0623\u0646\u0647": 205,
  "\u2581\u0628\u0627\u0644": 206,
  "\"": 207,
  "\u2581no": 208,
  "\u2581so": 209,
  "\u25813": 210,
  "\u0631": 211,
  "\u2581more": 212,
  "\u25812": 213,
  "\u2581information": 214,
  "\u2581support": 215,
  "\u2581just": 216,
  "General": 217,
  "\u2581like": 218,
  "\u0623": 219,
  "\u2581session": 220,
  "\u2581\u0643\u0645\u0627": 221,
  "\u2581national": 222,
  "\u0652": 223,
  "\u2581\u0648\u0642\u062f": 224,
  "\u2581don": 225,
  "\u2581\u062e\u0644\u0627\u0644": 226,
  "\u2581State": 227,
  "a": 228,
  "\u2581made": 229,
  "\u2581No": 230,
  "\u2581Secretary": 231,
  "\u2581And": 232,
  "\u2581into": 233,
  "\u2581\u0627\u0644\u062c\u0645\u0639\u064a\u0629": 234,
  "\u2581\u0641\u064a\u0645\u0627": 235,
  "\u2581,": 236,
  "\u2581He": 237,
  "\u2581those": 238,
  "\u0627\u0646": 239,
  "\u2581who": 240,
  "\u2581\u0628\u0639\u062f": 241,
  "\u2581\u0628\u0647\u0627": 242,
  "\u2581\u0628\u0623\u0646": 243,
  "\u0649": 244,
  "\u2581them": 245,
  "\u2581\u0627\u0644\u0645\u062a\u0639\u0644\u0642\u0629": 246,
  "\u2581\u064a\u0645\u0643\u0646": 247,
  "\u2581implementation": 248,
  "\u2581need": 249,
  "\u2581time": 250,
  "\u2581Convention": 251,
  "\u2581if": 252,
  "\u2581\u0623\u0646\u062a": 253,
  "\u2581\u0627\u0644\u0623\u0645\u0646": 254,
  "\u2581This": 255,
  "\u2581\u0627\u0646": 256,
  "\u2581well": 257,
  "\u2581\u0647\u064a": 258,
  "\u2581here": 259,
  "\u2581\u062a\u0644\u0643": 260,
  "ll": 261,
  "\u2581\u0647\u0646\u0627\u0643": 262,
  "\u2581any": 263,
  "\u2581\u0645\u062c\u0644\u0633": 264,
  "\u2581Government": 265,
  "\u2581her": 266,
  "\u2581\u0625\u0630\u0627": 267,
  "\u2581\u0627\u0644\u0623\u0645\u064a\u0646": 268,
  "\u2581Commission": 269,
  "\u25814": 270,
  "\u2581him": 271,
  "\u2581\u0647\u0646\u0627": 272,
  "\u2581International": 273,
  "\u2581\u0627\u0644\u0623\u0637\u0631\u0627\u0641": 274,
  "\u2581activities": 275,
  "\u2581\u0627\u0644\u0645\u062c\u0644\u0633": 276,
  "\u2581through": 277,
  "\u2581could": 278,
  "\u2581against": 279,
  "\u062c": 280,
  "\u2581\u0646": 281,
  "\u2581\u0641\u064a\u0647\u0627": 282,
  "\u2581\u0627\u0644\u0645\u0627\u062f\u0629": 283,
  "),": 284,
  "\u25815": 285,
  "\u2581Mr": 286,
  "C": 287,
  "\u0627\u0644": 288,
  "\u2581\u062a\u0646\u0641\u064a\u0630": 289,
  "\u2581\u062d\u0633\u0646\u0627": 290,
  "\u2581\u201c": 291,
  "\u0648": 292,
  "ed": 293,
  "\u2581some": 294,
  "\u2581\u0627\u0644\u062b\u0627\u0646\u064a": 295,
  "\u2581between": 296,
  "\u2581\u0627\u0644\u0648\u0637\u0646\u064a\u0629": 297,
  "\u2581\u0648\u0644\u0627": 298,
  "\u2581That": 299,
  "\u2581\u0623\u062e\u0631\u0649": 300,
  "\u2581take": 301,
  "\u2581get": 302,
  "\u2581\u0648\u0645\u0646": 303,
  "\u2581\u0645\u0627\u0630\u0627": 304,
  "\u2581meeting": 305,
  "\u0651\u064e": 306,
  "\u2581\u0643\u0627\u0646\u062a": 307,
  "\u2581people": 308,
  "\u2581\u0627\u0644\u0622\u0646": 309,
  "\u2581our": 310,
  "\u2581\u064a\u062a\u0639\u0644\u0642": 311,
  "\u2581new": 312,
  "\u2581law": 313,
  "\u2581\u0630\u0627\u062a": 314,
  "\u2581these": 315,
  "\u2581\u0627\u0644\u0642\u0631\u0627\u0631": 316,
  "\u2581\u0645\u0634\u0631\u0648\u0639": 317,
  "\u258110": 318,
  "e": 319,
  "\u2581\u0628\u0639\u0636": 320,
  "\u25816": 321,
  "\u2581\u0639\u0645\u0644": 322,
  "\u2581per": 323,
  "\u2581\u0641": 324,
  "\u2581system": 325,
  "\u2581\u0627\u0644\u0642\u0627\u0646\u0648\u0646": 326,
  "\u2581country": 327,
  "\u2581Security": 328,
  "\u2581two": 329,
  "\u2581\u0627\u0644\u0645\u0639\u0644\u0648\u0645\u0627\u062a": 330,
  "\u2581go": 331,
  "\u2581\u0643\u0627\u0646\u0648\u0646": 332,
  "\u2581measures": 333,
  "\u2581\u0628\u0647": 334,
  ")\u060c": 335,
  "\u2581...": 336,
  "\u2581organizations": 337,
  "\u2581Conference": 338,
  "\u2581\u0642\u0628\u0644": 339,
  "b": 340,
  "\u2581only": 341,
  "\u2581[": 342,
  "\u2581security": 343,
  "ve": 344,
  "\u2581over": 345,
  "\u2581\u0645\u062c\u0627\u0644": 346,
  "\u2581\u062a\u0642\u0631\u064a\u0631": 347,
  "\u2581now": 348,
  "\u2581Republic": 349,
  "\u2581\u0627\u0644\u0641\u0642\u0631\u0629": 350,
  "\u2581\u064a\u0643\u0648\u0646": 351,
  "\u2581\u0627\u0644\u0633\u0644\u0627\u0645": 352,
  "\u2581cooperation": 353,
  "\u2581\u0627\u0644\u062a\u0646\u0645\u064a\u0629": 354,
  "\u2581\u064a\u0646\u0628\u063a\u064a": 355,
  "\u2581may": 356,
  "\u2581draft": 357,
  "\u2581\u0627\u0644\u0623\u0639\u0645\u0627\u0644": 358,
  "\u2581\u0625\u0637\u0627\u0631": 359,
  "\u2581when": 360,
  "\u2581\u0644\u064a\u0633": 361,
  "\u2581children": 362,
  "\u0646\u064a": 363,
  "\u25817": 364,
  "\u2581efforts": 365,
  "\u2581\u0627\u0644\u062e\u0627\u0635": 366,
  "\u2581\u0627\u0644\u0645\u0627\u0626\u0629": 367,
  "L": 368,
  "\u258115": 369,
  "\u2581than": 370,
  "\u2581\u0644\u064a": 371,
  "\u2581\u062f\u0648\u0644\u0627\u0631": 372,
  "\u2581\u062a\u0639\u0632\u064a\u0632": 373,
  "\u2581\u062d\u062a\u0649": 374,
  "\u2581\u0627\u0644\u062f\u0648\u0644\u0629": 375,
  "\u2581\u0644\u062c\u0646\u0629": 376,
  "\u2581programme": 377,
  "S": 378,
  "\u2581\u0627\u0644\u062e\u0627\u0635\u0629": 379,
  "\u2581\u0648\u064a": 380,
  "\u2581\u0627\u0644\u0633\u064a\u062f": 381,
  "\u2581\u0628\u0631\u0646\u0627\u0645\u062c": 382,
  "\u2581resources": 383,
  "\u0645\u0627": 384,
  "\u2581\u064a\u062c\u0628": 385,
  "\u2581Development": 386,
  "\u2581\u0627\u0644\u0645\u0631\u0623\u0629": 387,
  "\u2581\u0641\u0625\u0646": 388,
  "\u2581non": 389,
  "c": 390,
  "\u2581Rights": 391,
  "\u2581\u0643\u0646\u062a": 392,
  "\u2581\u0627\u0644\u0649": 393,
  "\u2581\u0639\u0644\u064a\u0647\u0627": 394,
  "\u2581\u0627\u0644\u0623\u0639\u0636\u0627\u0621": 395,
  "\u2581\u0641\u0642\u0637": 396,
  "\u2581she": 397,
  "\u2581\u0644\u0646": 398,
  "\u2581\u0623\u0643\u062b\u0631": 399,
  "\u2581make": 400,
  "\u2581number": 401,
  "\u2581\u0643": 402,
  "\u0639": 403,
  "\u25818": 404,
  "\u2581did": 405,
  "\u2581want": 406,
  "\u2581Oh": 407,
  "\u2581\u0645\u062b\u0644": 408,
  "\u2581use": 409,
  "\u2581got": 410,
  "\u2581order": 411,
  "\u2581must": 412,
  "\u2581Yeah": 413,
  "\u2581\u0639\u062f\u062f": 414,
  "\u2581assistance": 415,
  "\u2581\u062a\u0642\u062f\u064a\u0645": 416,
  "\u2581regional": 417,
  "\u2581But": 418,
  "\u2581\u0648\u0623\u0646": 419,
  "\u2581first": 420,
  "\u2581cent": 421,
  "\u2581\u0648\u062a": 422,
  "\u2581think": 423,
  "\u2581paragraph": 424,
  "\u2581years": 425,
  "\u2581Group": 426,
  "\u2581\u0639\u0645\u0644\u064a\u0629": 427,
  "\u2581economic": 428,
  "\u2581process": 429,
  "\u2581issues": 430,
  "\u258130": 431,
  "\u2581\u0627\u0644\u0623\u062e\u0631\u0649": 432,
  "\u2581\u062c\u062f\u0648\u0644": 433,
  "\u2581\u0627\u0644\u062a\u0639\u0627\u0648\u0646": 434,
  "\u258112": 435,
  "\u2581ensure": 436,
  "\u2581provide": 437,
  "\u2581\u062a\u0643\u0648\u0646": 438,
  "\u2581where": 439,
  "\u258120": 440,
  "\u2581\u0648\u0636\u0639": 441,
  "\u2581members": 442,
  "\u2581financial": 443,
  "\u2581further": 444,
  "\u2581us": 445,
  "\u2581So": 446,
  "\u2581Human": 447,
  "\u25819": 448,
  "\u2581\u0627\u0644\u0630\u064a\u0646": 449,
  "\u2581\u0634\u064a\u0621": 450,
  "\u2581article": 451,
  "\u2581said": 452,
  "\u2581\u062a\u0634\u0631\u064a\u0646": 453,
  "\u2581\u0627": 454,
  "\u2581social": 455,
  "\u2581Special": 456,
  "\u2581\u0627\u0644\u0645\u0639\u0646\u064a\u0629": 457,
  "\u2581see": 458,
  "\u2581\u0646\u0639\u0645": 459,
  "\u2581services": 460,
  "\u2581\u0627\u0644\u062f\u0648\u0631\u0629": 461,
  "\u2581\u0639\u062f\u0645": 462,
  "\u2581They": 463,
  "\u2581\u0627\u0644\u0645\u0648\u0627\u0631\u062f": 464,
  "\u2581good": 465,
  "\u2581\u0627\u0644\u0645\u0633\u0627\u0639\u062f\u0629": 466,
  "\u2581\u0644\u0643\u0646": 467,
  "\u2581\u0639\u0644\u064a\u0647": 468,
  "\u2581\u0627\u0644\u0648\u0642\u062a": 469,
  "\u2581shall": 470,
  "\u2581particular": 471,
  "\u2581\u0627\u0644\u0641\u0631\u064a\u0642": 472,
  "\u2581S": 473,
  "\u2581being": 474,
  "\u2581\u0633\u064a": 475,
  "\u2581\u0627\u0644\u062a\u0642\u0631\u064a\u0631": 476,
  "\u0641": 477,
  "\u2581decision": 478,
  "\u2581party": 479,
  "\u2581within": 480,
  "\u258118": 481,
  "\u2581Office": 482,
  "]": 483,
  "\u0642": 484,
  "\u2581way": 485,
  "\u2581developing": 486,
  "\u2581\u0627\u0644\u0627\u0642\u062a\u0635\u0627\u062f\u064a\u0629": 487,
  "\u2581provided": 488,
  "\u2581\u0644\u0647\u0627": 489,
  "\u2581programmes": 490,
  "\u2581\u0627\u0644\u0623\u0637\u0641\u0627\u0644": 491,
  "\u258111": 492,
  "\u2581relevant": 493,
  "\u258114": 494,
  "\u2581\u0636\u062f": 495,
  "\u2581\u0644\u0643": 496,
  "\u2581\u0627\u0644\u0645\u0639\u0646\u064a": 497,
  "\u2581!": 498,
  "\u2581December": 499,
  "\u2581\u062f\u0648\u0646": 500,
  "\u2581how": 501,
  "\u2581\u0627\u0644\u0627\u062a\u0641\u0627\u0642\u064a\u0629": 502,
  "\u2581back": 503,
  "\u2581before": 504,
  "\u2581Well": 505,
  "\u0632": 506,
  "\u2581\u0645\u0646\u0647\u0627": 507,
  "\u2581There": 508,
  "\u2581\u062a\u0645": 509,
  "\u2581gonna": 510,
  "\u2581public": 511,
  "\u2581\u0643\u0630\u0644\u0643": 512,
  "\u2581adopted": 513,
  "\u2581\u0648\u0644\u0643\u0646": 514,
  "\u2581\u0627\u0644\u0623\u0645\u0631": 515,
  "\u2581\u0646\u062d\u0648": 516,
  "\u2581period": 517,
  "\u2581\u0627\u0644\u0639\u0627\u0644\u0645\u064a": 518,
  "\u2581during": 519,
  "\u0633": 520,
  "\u2581areas": 521,
  "ly": 522,
  "\u2581\u0627\u0644\u0635\u0644\u0629": 523,
  "\u2581peace": 524,
  "\u2581At": 525,
  "\u2581world": 526,
  "\u2581staff": 527,
  "\u2581management": 528,
  "\u2581held": 529,
  "\u2581\u0639\u0646\u062f\u0645\u0627": 530,
  "\u2581\u0625\u0646\u0647": 531,
  "\u2581\u0627\u0644\u062d\u0643\u0648\u0645\u064a\u0629": 532,
  "\u2581As": 533,
  "\u2581\u0627\u0644\u0645\u0627\u0644\u064a\u0629": 534,
  "\u2581level": 535,
  "\u258113": 536,
  "\u258116": 537,
  "\u2581going": 538,
  "\u2581\u0627\u0644\u0645\u062c\u062a\u0645\u0639": 539,
  "\u2581\u0648\u0641\u0642\u0627": 540,
  "\u2581President": 541,
  "\u0651\u0650": 542,
  "\u2581\u0631\u0626\u064a\u0633": 543,
  "\u2581\u0625\u062f\u0627\u0631\u0629": 544,
  "\u2581She": 545,
  "\u2581health": 546,
  "\u258119": 547,
  "\u2581situation": 548,
  "\u2581\u0633\u062a": 549,
  "\u2581\u0627\u0644\u0623\u0633\u0627\u0633\u064a\u0629": 550,
  "\u2581\u0627\u0644\u0641\u062a\u0631\u0629": 551,
  "\u2581\u0637\u0631\u064a\u0642": 552,
  "\u2581taken": 553,
  "\u2581persons": 554,
  "\u2581political": 555,
  "\u2581regard": 556,
  "\u2581part": 557,
  "\u2581\u0628\u0645\u0648\u062c\u0628": 558,
  "):": 559,
  "\u2581\u0645\u0643\u062a\u0628": 560,
  "\u2581action": 561,
  "\u2581parties": 562,
  "\u2581\u0627\u0644\u0639\u0627\u0644\u0645\u064a\u0629": 563,
  "\u2581\u0648\u0627\u0644\u0645": 564,
  "\u2581\u0641\u064a\u0647": 565,
  "\u2581All": 566,
  "\u2581\u0648\u0625\u0630": 567,
  "\u2581\u00bb": 568,
  "\u258117": 569,
  "\u062f\u064a\u0633\u0645\u0628\u0631": 570,
  "\u2581\u00ab": 571,
  "\u2581review": 572,
  "\u2581\u0627\u0644\u062d\u0643\u0648\u0645\u0629": 573,
  "\u2581following": 574,
  "\u2581\u062d\u064a\u062b": 575,
  "\u2581\u0645\u0646\u0630": 576,
  "\u2581\u0627\u0644\u0646\u0627\u0645\u064a\u0629": 577,
  "\u2581legal": 578,
  "\u2581protection": 579,
  "\u2581community": 580,
  "\u2581most": 581,
  "\u2581both": 582,
  "\u2581\u0628\u0634\u0643\u0644": 583,
  "\u2581education": 584,
  "\u2581Programme": 585,
  "\u2581continue": 586,
  "\u2581Organization": 587,
  "\u2581\u062a\u062d\u0642\u064a\u0642": 588,
  "\u2581\u0648\u0639\u0644\u0649": 589,
  "\u2581important": 590,
  "\u2581To": 591,
  "\u2581\u0627\u0644\u0628\u0646\u062f": 592,
  "\u2581same": 593,
  "\u2581special": 594,
  "\u2581accordance": 595,
  "\u2581respect": 596,
  "\u2581\u062d\u0627\u0644\u0629": 597,
  "\u2581\u0628\u0646\u0627\u0621": 598,
  "\u2581\u0644\u062f\u0649": 599,
  "\u2581\u0627\u0644\u0637\u0631\u0641": 600,
  "\u2581agenda": 601,
  "\u2581\u0623\u0641\u0631\u064a\u0642\u064a\u0627": 602,
  "\u2581many": 603,
  "\u2581training": 604,
  "\u2581\u0648\u0645": 605,
  "\u2581\u0627\u0644\u0646\u0638\u0631": 606,
  "\u2581\u0633\u0648\u0641": 607,
  "\u2581\u0627\u0644\u0623\u0633\u0644\u062d\u0629": 608,
  "\u2581policy": 609,
  "\u2581among": 610,
  "\u258131": 611,
  "\u2581\u0648\u0647\u0648": 612,
  "E": 613,
  "\u2581year": 614,
  "\u2581capacity": 615,
  "\u2581E": 616,
  "\u2581recommendations": 617,
  "\u2581very": 618,
  "\u2581\u0644\u0647": 619,
  "\u2581\u0627\u0644\u0627\u0642\u062a\u0635\u0627\u062f\u064a": 620,
  "\u2581If": 621,
  "\u2581\u0627\u0644\u0631\u0626\u064a\u0633": 622,
  "\u2581Member": 623,
  "\u2581\u0645\u0646\u0638\u0645\u0629": 624,
  "\u2581place": 625,
  "\u2581\u0623\u0639\u0645\u0627\u0644": 626,
  "\u2581\u0627\u0644\u062f\u0639\u0645": 627,
  "\u2581three": 628,
  "\u2581\u0646\u0638\u0627\u0645": 629,
  "\u2581Africa": 630,
  "\u2581effective": 631,
  "\u2581after": 632,
  "\u2581\u0645\u0624\u062a\u0645\u0631": 633,
  "\u2581\u062c\u062f\u0627": 634,
  "\u2581working": 635,
  "\u2581reports": 636,
  "\u2581\u062c\u0645\u0647\u0648\u0631\u064a\u0629": 637,
  "\u0644\u0627": 638,
  "\u2581\u0648\u0623": 639,
  "\u2581come": 640,
  "\u2581\u0643\u064a\u0641": 641,
  "\u2581\u0627\u0644\u0645\u0624\u0631\u062e": 642,
  "\u2581C": 643,
  "\u2581\u0623\u062d\u062f": 644,
  "\u2581established": 645,
  "\u2581\u0627\u0644\u0639\u0627\u0644\u0645": 646,
  "\u062a\u064a": 647,
  "\u258121": 648,
  "\u2581\u0639\u0645\u0644\u064a\u0627\u062a": 649,
  "\u2581\u0627\u0644\u0628\u0631\u0646\u0627\u0645\u062c": 650,
  "\u2581\u0632\u064a\u0627\u062f\u0629": 651,
  "y": 652,
  "\u2581role": 653,
  "\u2581\u0648\u0647\u064a": 654,
  "\u2581access": 655,
  "th": 656,
  "\u2581\u0627\u0644\u0625\u0642\u0644\u064a\u0645\u064a\u0629": 657,
  "\u2581\u0627\u0644\u0645\u062d\u0643\u0645\u0629": 658,
  "\u2581..": 659,
  "\u2581because": 660,
  "er": 661,
  "\u062a\u0647": 662,
  "\u2581life": 663,
  "\u2581without": 664,
  "\u258125": 665,
  "\u2581then": 666,
  "\u2581view": 667,
  "\u2581progress": 668,
  "\u2581\u0627\u0644\u0627\u062a\u062d\u0627\u062f": 669,
  "\u2581present": 670,
  "\u258122": 671,
  "\u2581\u0622\u062e\u0631": 672,
  "al": 673,
  "\u2581\u0627\u0644\u0645\u0646\u0638\u0645\u0627\u062a": 674,
  "\u2581related": 675,
  "\u2581down": 676,
  "\u2581case": 677,
  "\u2581P": 678,
  "\u2581\u0627\u0644\u0646\u0638\u0627\u0645": 679,
  "\u2581\u0633\u064a\u0645\u0627": 680,
  "\u2581\u0628\u0627\u0644\u0646\u0633\u0628\u0629": 681,
  "\u2581June": 682,
  "\u2581World": 683,
  "\u2581full": 684,
  "\u2581\u0642\u0631\u0627\u0631": 685,
  "\u062a\u0647\u0627": 686,
  "\u2581set": 687,
  "\u2581\u0625\u0644\u0627": 688,
  "\u2581\u0623\u0646\u0647\u0627": 689,
  "\u2581\u0627\u0644\u0645\u0642\u0631\u0631": 690,
  "\u2581help": 691,
  "\u2581Parties": 692,
  "\u2581say": 693,
  "\u0643\u0645": 694,
  "\u2581nuclear": 695,
  "\u2581How": 696,
  "\u2581item": 697,
  "\u2581For": 698,
  "\u2581\u0648\u0630\u0644\u0643": 699,
  "\u2581\u0627\u0644\u0625\u062f\u0627\u0631\u0629": 700,
  "\u2581since": 701,
  "\u2581\u0627\u0644\u0628\u0634\u0631\u064a\u0629": 702,
  "\u0640\u0640\u0640": 703,
  "i": 704,
  "\u2581\u0639": 705,
  "\u2581\u0627\u0644\u0631\u0626\u064a\u0633\u064a\u0629": 706,
  "\u2581\u0627\u0644\u062e\u062f\u0645\u0627\u062a": 707,
  "\u2581appropriate": 708,
  "\u2581possible": 709,
  "\u2581\u062d\u0632\u064a\u0631\u0627\u0646": 710,
  "\u2581still": 711,
  "\u2581\u0644\u062d\u0642\u0648\u0642": 712,
  "\u2581\u0648\u0642\u062a": 713,
  "\u2581necessary": 714,
  "\u2581\u0646\u062d\u0646": 715,
  "\u258123": 716,
  "\u2581Economic": 717,
  "\u2581\u0627\u0644\u0639\u0627\u0645\u0644": 718,
  "\u2581\u0627\u0644\u0648\u0637\u0646\u064a": 719,
  "\u2581\u0627\u0644\u0645\u0624\u062a\u0645\u0631": 720,
  "\u2581violence": 721,
  "\u062d": 722,
  "\u2581Hey": 723,
  "\u2581even": 724,
  "\u2581Okay": 725,
  "\u2581\u0627\u0644\u062a\u062f\u0627\u0628\u064a\u0631": 726,
  "\u2581\u0627\u0633\u062a\u062e\u062f\u0627\u0645": 727,
  "\u2581\u0627\u0644\u0645\u0646\u0638\u0645\u0629": 728,
  "\u062a\u064a\u0646": 729,
  "\u2581Board": 730,
  "\u2581global": 731,
  "\u2581Social": 732,
  "\u2581technical": 733,
  "\u2581man": 734,
  "\u2581basis": 735,
  "\u064a\u0627": 736,
  "\u2581end": 737,
  "\u2581budget": 738,
  "\u2581\u0627\u0644\u0648\u0644\u0627\u064a\u0627\u062a": 739,
  "\u2581\u0648\u0645\u0627": 740,
  "\u2581\u0645\u0639\u0644\u0648\u0645\u0627\u062a": 741,
  "\u2581gender": 742,
  "\u064a\u0648\u0646\u064a\u0647": 743,
  "\u2581million": 744,
  "\u2581\u0627\u0644\u0646\u0648\u0648\u064a\u0629": 745,
  "\u0627\u0621": 746,
  "\u2581African": 747,
  "\u2581\u0644\u0648": 748,
  "\u2581\u0623\u0639\u0636\u0627\u0621": 749,
  "\u2581\u0627\u0644\u0623\u0646\u0634\u0637\u0629": 750,
  "\u2581\u0627\u062a\u0641\u0627\u0642\u064a\u0629": 751,
  "\u2581\u062b\u0645": 752,
  "\u2581\u0627\u0644\u0625\u0646\u0645\u0627\u0626\u064a\u0629": 753,
  "\u258124": 754,
  "\u2581On": 755,
  "\u2581\u0627\u0644\u0645\u0633\u0627\u0626\u0644": 756,
  "\u201d": 757,
  "\u2581institutions": 758,
  "\u2581used": 759,
  "\u2581\u0646\u0637\u0627\u0642": 760,
  "\u2581needs": 761,
  "\u2581while": 762,
  "\u2581\u0627\u0644\u0627\u062c\u062a\u0645\u0627\u0639\u064a\u0629": 763,
  "\u2581long": 764,
  "\u2581each": 765,
  "\u2581meetings": 766,
  "\u2581\u0644\u0639\u0627\u0645": 767,
  "\u2581\u0634\u062e\u0635": 768,
  "\u2581provisions": 769,
  "\u2581\u0625\u062c\u0631\u0627\u0621": 770,
  "\u2581\u0639\u0646\u062f": 771,
  "\u2581\u0627\u0644\u064a\u0648\u0645": 772,
  "\u2581cases": 773,
  "\u2581account": 774,
  "\u2581\u0623\u0633\u0627\u0633": 775,
  "\u2581\u0627\u0644\u0646\u0633\u0627\u0621": 776,
  "\u2581B": 777,
  "\u2581\u0625\u0646\u0634\u0627\u0621": 778,
  "\u2581general": 779,
  "\u2581consideration": 780,
  "\u2581July": 781,
  "\u2581groups": 782,
  "\u2581\u0631\u0642\u0645": 783,
  "\u2581\u0648\u062c\u0648\u062f": 784,
  "\u2581\u0627\u0646\u0627": 785,
  "\u2581didn": 786,
  "\u2581\u0645\u0645\u0627": 787,
  "\u2581too": 788,
  "\u2581give": 789,
  "\u2581\u0627\u0644\u0623\u0645\u0627\u0646\u0629": 790,
  "\u2581upon": 791,
  "\u2581National": 792,
  "\u2581\u0645\u062c\u0645\u0648\u0639\u0629": 793,
  "\u258128": 794,
  "\u2581\u0627\u0644\u0633\u0644\u0627\u062d": 795,
  "\u2581\u062e\u0627\u0635\u0629": 796,
  "\u2581\u062a\u062f\u0627\u0628\u064a\u0631": 797,
  "\u2581really": 798,
  "\u2581\u0644\u0644\u0623\u0645\u0645": 799,
  "\u2581\u062a\u0642\u062f\u0645": 800,
  "\u2581\u0642\u0627\u0646\u0648\u0646": 801,
  "\u2581\u0627\u0644\u0645\u064a\u0632\u0627\u0646\u064a\u0629": 802,
  "\u2581high": 803,
  "\u2581\u0627\u0644\u0645\u062d\u0644\u064a\u0629": 804,
  "\u2581policies": 805,
  "\u2581\u0627\u0644\u062c\u0647\u0648\u062f": 806,
  "\u2581something": 807,
  "\u2581\u062a\u0645\u0648\u0632": 808,
  "\u2581::": 809,
  "\u25812005": 810,
  "\u2581\u0627\u0644\u0645\u0648\u0638\u0641\u064a\u0646": 811,
  "\u2581\u0627\u0644\u0648\u0627\u0631\u062f\u0629": 812,
  "\u2581\u062c\u0627\u0646\u0628": 813,
  "\u2581New": 814,
  "\u2581concerned": 815,
  "\u2581Yes": 816,
  "\u2581\u0623\u0646\u0634\u0637\u0629": 817,
  "\u2581\u0644\u0623\u0646": 818,
  "\u2581area": 819,
  "\u2581much": 820,
  "\u2581\u0644\u0644\u062c\u0646\u0629": 821,
  "\u2581Working": 822,
  "\u2581include": 823,
  "\u2581delegation": 824,
  "\u2581\u0628\u0635\u0648\u0631\u0629": 825,
  "\u2581May": 826,
  "\u064a\u0648\u0644\u064a\u0647": 827,
  "\u2581\u0627\u0644\u062a\u0639\u0644\u064a\u0645": 828,
  "\u2581\u0627\u0644\u0642\u0627\u0626\u0645\u0629": 829,
  "\u2581local": 830,
  "\u2581data": 831,
  "\u2581\u0648\u064a\u0646\u0628\u063a\u064a": 832,
  "\u2581\u0627\u0644\u0623\u0634\u062e\u0627\u0635": 833,
  "\u2581issue": 834,
  "\u064d": 835,
  "\u2581trade": 836,
  "\u2581\u0627\u0644\u0639\u0646\u0641": 837,
  "\u258126": 838,
  "I": 839,
  "\u2581available": 840,
  "\u258127": 841,
  "\u2581Why": 842,
  "\u2581tell": 843,
  "\u2581child": 844,
  "\u2581\u062d\u0643\u0648\u0645\u0629": 845,
  "\u2581\u0648\u0627\u0644\u062a\u0646\u0645\u064a\u0629": 846,
  "\u2581region": 847,
  "\u2581\u062f\u0639\u0645": 848,
  "\u2581does": 849,
  "\u2581proposed": 850,
  "\u2581\u062e\u062f\u0645\u0627\u062a": 851,
  "\u2581Court": 852,
  "\u2581\u064a\u0648\u0645": 853,
  "\u2581\u0641\u0642\u062f": 854,
  "\u2581considered": 855,
  "\u2581plan": 856,
  "\u2581\u0648\u0627\u062d\u062f": 857,
  "\u2581\u0625": 858,
  "\u2581off": 859,
  "\u2581\u0623\u0641\u0636\u0644": 860,
  "\u2581little": 861,
  "\u2581never": 862,
  "\u2581\u0627\u0644\u0623\u0648\u0644\u0649": 863,
  "\u2581Secretariat": 864,
  "\u2581\u062d\u0627\u0644\u0627\u062a": 865,
  "\u2581\u201d": 866,
  "\u2581group": 867,
  "\u2581\u0625\u0644\u064a\u0647\u0627": 868,
  "\u2581\u0627\u062a\u062e\u0627\u0630": 869,
  "\u2581increase": 870,
  "\u2581humanitarian": 871,
  "\u2581family": 872,
  "\u2581\u0627\u0644\u062c\u062f\u064a\u062f\u0629": 873,
  "\u2581mean": 874,
  "\u2581D": 875,
  "\u2581\u0627\u0644\u0628\u064a\u0627\u0646\u0627\u062a": 876,
  "\u2581submitted": 877,
  "\u2581European": 878,
  "Add": 879,
  "\u2581based": 880,
  "\u2581framework": 881,
  "\u2581September": 882,
  "\u2581last": 883,
  "\u2581\u0627\u0644\u062a\u0645\u064a\u064a\u0632": 884,
  "\u2581noted": 885,
  "\u2581importance": 886,
  "\u2581Fund": 887,
  "\u2581\u0627\u0644\u0645\u0646\u0637\u0642\u0629": 888,
  "\u2581\u0627\u0644\u0645\u0631\u0641\u0642": 889,
  "g": 890,
  "\u2581\u0627\u0644\u0642\u0627\u0646\u0648\u0646\u064a\u0629": 891,
  "\u2581particularly": 892,
  "\u25812000": 893,
  "\u2581\u0627\u0644\u062d\u0635\u0648\u0644": 894,
  "\u2581bodies": 895,
  "\u2581My": 896,
  "\u2581\u0628\u0644": 897,
  "\u2581\u0627\u0644\u0633\u0627\u0639\u0629": 898,
  "\u2581\u0627\u0644\u062d\u0642": 899,
  "\u2581November": 900,
  "\u2581\u0648\u0628": 901,
  "\u2581\u0623\u0647\u0645\u064a\u0629": 902,
  "\u2581means": 903,
  "\u2581:": 904,
  "\u2581better": 905,
  "\u2581\u0627\u0644\u0645\u0633\u062a\u062f\u0627\u0645\u0629": 906,
  "\u2581Women": 907,
  "\u2581October": 908,
  "\u2581\u0641\u0631\u064a\u0642": 909,
  "\u2581\u0645\u0644\u064a\u0648\u0646": 910,
  "\u2581resolutions": 911,
  "\u2581\u062a\u0648\u0641\u064a\u0631": 912,
  "\u2581\u0627\u0644\u0635\u062f\u062f": 913,
  "\u2581\u062a\u0642\u0648\u0645": 914,
  "\u2581\u0648\u0643\u0630\u0644\u0643": 915,
  "\u2581God": 916,
  "\u2581\u0641\u0649": 917,
  "\u2581conflict": 918,
  "\u2581\u0623\u064a\u0644\u0648\u0644": 919,
  "\u2581address": 920,
  "\u2581\u0644\u0645\u0627\u0630\u0627": 921,
  "\u2581day": 922,
  "\u2581future": 923,
  "\u2581society": 924,
  "\u2581\u0628\u0633\u0628\u0628": 925,
  "\u2581\u0628\u0644\u062f\u0627\u0646": 926,
  "\u2581\u0627\u0644\u0645\u062a\u0635\u0644\u0629": 927,
  "\u258129": 928,
  "\u2581Action": 929,
  "\u2581\u0627\u0644\u0628\u0639\u062b\u0629": 930,
  "\u2581promote": 931,
  "\u2581developed": 932,
  "or": 933,
  "\u2581field": 934,
  "in": 935,
  "\u2581Come": 936,
  "\u0645\u0627\u0631\u0633": 937,
  "\u2581document": 938,
  "\u2581Let": 939,
  "\u2581own": 940,
  "\u2581military": 941,
  "\u2581--": 942,
  "\u2581note": 943,
  "\u2581am": 944,
  "\u25812006": 945,
  "\u2581participation": 946,
  "\u2581\u0628\u0630\u0644\u0643": 947,
  "\u2581\u0644\u0644\u0645": 948,
  "\u2581let": 949,
  "\u2581doing": 950,
  "\u2581\u0627\u0644\u0633\u064a\u0627\u0633\u0627\u062a": 951,
  "\u2581might": 952,
  "\u25812002": 953,
  "\u25812004": 954,
  "\u2581\u0623\u062b\u0646\u0627\u0621": 955,
  "\u2581specific": 956,
  "\u2581required": 957,
  "\u2581look": 958,
  "\u2581\u0627\u0644\u062c\u0644\u0633\u0629": 959,
  "\u0633\u0628\u062a\u0645\u0628\u0631": 960,
  "\u2581\u0627\u0644\u0641\u0631\u0639\u064a\u0629": 961,
  "\u2581Union": 962,
  "\u2581\u062c\u062f\u064a\u062f\u0629": 963,
  "\u2581\u0625\u0639\u0627\u062f\u0629": 964,
  "\u0641\u064a": 965,
  "\u2581Article": 966,
  "\u2581\u0627\u0644\u062a": 967,
  "\u0646\u0648\u0641\u0645\u0628\u0631": 968,
  "\u2581\u0627\u0644\u062b\u0627\u0646\u064a\u0629": 969,
  "\u2581Department": 970,
  "\u2581call": 971,
  "\u2581sustainable": 972,
  "\u2581\u0627\u0646\u0647": 973,
  "\u2581\u0627\u0644\u0644\u0627\u0632\u0645\u0629": 974,
  "\u2581weapons": 975,
  "\u2581levels": 976,
  "\u2581agencies": 977,
  "\u2581\u0641\u062a\u0631\u0629": 978,
  ".1": 979,
  "\u2581\u0627\u0644\u0633\u064a\u0627\u0633\u064a\u0629": 980,
  "\u2581\u064a\u0644\u064a": 981,
  "\u2581\u0627\u0644\u0625\u062c\u0631\u0627\u0621\u0627\u062a": 982,
  "\u2581\u0627\u0644\u0645\u0648\u0627\u062f": 983,
  "\u2581poverty": 984,
  "\u2581\u0645\u0646\u0637\u0642\u0629": 985,
  "\u2581Mission": 986,
  "\u25812003": 987,
  "\u2581police": 988,
  "\u2581control": 989,
  "\u2581question": 990,
  "\u2581current": 991,
  "\u2581Do": 992,
  "\u2581\u0627\u0644\u062f\u064a\u0645\u0642\u0631\u0627\u0637\u064a\u0629": 993,
  "\u2581Governments": 994,
  "\u2581care": 995,
  "\u2581sector": 996,
  "\u2581\u0627\u0644\u0645\u062a\u0639\u0644\u0642": 997,
  "\u2581\u0627\u0644\u0625\u0646\u0645\u0627\u0626\u064a": 998,
  "up": 999,
  "\u2581\u0633\u0646": 1000,
  "\u2581\u0627\u0644\u0628\u0644\u062f": 1001,
  "\u2581given": 1002,
  "\u0636": 1003,
  "\u2581\u0627\u0644\u0645\u0633\u062a\u0648\u0649": 1004,
  "\u2581\u062d\u0648\u0644": 1005,
  "\u2581\u0645\u0633\u0623\u0644\u0629": 1006,
  "\u2581requested": 1007,
  "\u2581\u0627\u0644\u0625\u0646\u0633\u0627\u0646\u064a\u0629": 1008,
  "\u2581operations": 1009,
  "\u2581requirements": 1010,
  "\u2581various": 1011,
  "\u2581\u0627\u0644\u0634\u0631\u0637\u0629": 1012,
  "\u2581\u0627\u0644\u0633\u0643\u0627\u0646": 1013,
  "\u2581\u0627\u0644\u062a\u062c\u0627\u0631\u0629": 1014,
  "\u2581\u062f\u0648\u0631\u062a\u0647\u0627": 1015,
  "\u2581find": 1016,
  "\u2581March": 1017,
  "\u062a\u0643": 1018,
  "\u2581\u0633": 1019,
  "\u2581\u0645\u0631\u0629": 1020,
  "\u2581\u0639\u0644\u064a": 1021,
  "\u2581\u062d\u0641\u0638": 1022,
  "\u2581authorities": 1023,
  "\u2581project": 1024,
  "\u2581\u0627\u0644\u062d\u0627\u0644\u0629": 1025,
  "\u2581change": 1026,
  "\u2581second": 1027,
  "\u2581\u062a\u062d\u062a": 1028,
  "\u2581Declaration": 1029,
  "\u2581\u0648\u0645\u0639": 1030,
  "\u2581\u0627\u0644\u0645\u0643\u062a\u0628": 1031,
  "\u0623\u0643\u062a\u0648\u0628\u0631": 1032,
  "\u2581\u0627\u0646\u062a": 1033,
  "\u25812007": 1034,
  "\u2581\u0627\u0644\u0645\u0646\u0627\u0637\u0642": 1035,
  "\u2581Law": 1036,
  "\u2581\u062d\u062f": 1037,
  "\u2581\u062c\u062f\u064a\u062f": 1038,
  "\u2581civil": 1039,
  "\u2581\u062a\u062d\u0633\u064a\u0646": 1040,
  "\u2581context": 1041,
  "\u2581\u0642": 1042,
  "\u2581\u2014": 1043,
  "\u2581contained": 1044,
  "\u2581p": 1045,
  "\u2581\u0627\u0644\u0641\u0642\u0631": 1046,
  "\u2581put": 1047,
  "\u2581\u0627\u0644\u062a\u0627\u0644\u064a\u0629": 1048,
  "\u2581\u0643\u0628\u064a\u0631": 1049,
  "\u2581\u0631\u0628\u0645\u0627": 1050,
  "\u2581\u0625\u0646\u0647\u0627": 1051,
  "\u2581additional": 1052,
  "\u2581why": 1053,
  "\u2581\u0627\u0644\u0644\u0647": 1054,
  "\u2581Report": 1055,
  "\u2581attention": 1056,
  "\u25812008": 1057,
  "\u2581addition": 1058,
  "o": 1059,
  "\u2581\u0645\u0643\u0627\u0641\u062d\u0629": 1060,
  "\u2581\u0627\u0644\u0627\u062c\u062a\u0645\u0627\u0639": 1061,
  "\u2581\u064a\u062a\u0645": 1062,
  "\u25812001": 1063,
  "\u2581\u0648\u0627\u062d\u062f\u0629": 1064,
  "\u2581\u0622\u0630\u0627\u0631": 1065,
  "\u2581\u0627\u0644\u0645\u0634\u062a\u0631\u0643\u0629": 1066,
  "\u2581\u0639\u0642\u062f": 1067,
  "\u2581representatives": 1068,
  "\u2581\u0628\u0631\u0627\u0645\u062c": 1069,
  "\u2581\u0627\u0644\u0637\u0641\u0644": 1070,
  "\u2581agreed": 1071,
  "\u2581Rapporteur": 1072,
  "\u2581\u0627\u0644\u0623\u0647\u062f\u0627\u0641": 1073,
  "\u2581April": 1074,
  "\u2581\u062a\u062d\u062f\u064a\u062f": 1075,
  "\u2581\u0627\u0644\u0631\u0633\u0645\u064a\u0629": 1076,
  "\u2581South": 1077,
  "\u2581above": 1078,
  "\u2581representative": 1079,
  "\u2581However": 1080,
  "\u2581population": 1081,
  "\u2581\u0627\u0644\u062a\u0627\u0628\u0639\u0629": 1082,
  "\u2581taking": 1083,
  "\u2581\u0627\u0644\u0633\u0627\u0628\u0642\u0629": 1084,
  "\u2581again": 1085,
  "\u2581\u062d\u0642": 1086,
  "\u2581With": 1087,
  "\u2581towards": 1088,
  "\u2581\u0633\u0646\u0629": 1089,
  "\u2581\u062e\u0637\u0629": 1090,
  "\u2581Protocol": 1091,
  "\u2581High": 1092,
  "\u2581mandate": 1093,
  "\u2581\u0645\u0633\u062a\u0648\u0649": 1094,
  "\u2581Don": 1095,
  "\u2581concern": 1096,
  "\u2581\u062f\u0627\u062e\u0644": 1097,
  "\u2581\u0640": 1098,
  "\u2581\u0623\u064a\u0627\u0631": 1099,
  "\u0647\u0645\u0627": 1100,
  "\u2581thing": 1101,
  "\u2581conditions": 1102,
  "\u2581\u0627\u0644\u0639\u0645\u0644\u064a\u0629": 1103,
  "\u2581\u0639\u0644\u064a\u0643": 1104,
  "\u2581concerning": 1105,
  "\u2581\u0644\u0630\u0644\u0643": 1106,
  "\u2581major": 1107,
  "\u2581request": 1108,
  "\u2581men": 1109,
  "\u2581continued": 1110,
  "\u2581\u0627\u0644\u0625\u0631\u0647\u0627\u0628": 1111,
  "\u062b": 1112,
  "\u2581already": 1113,
  "\u2581\u0627\u0644\u0645\u0642\u062f\u0645\u0629": 1114,
  "\u2581Affairs": 1115,
  "\u2581\u0646\u064a\u0633\u0627\u0646": 1116,
  "2": 1117,
  "\u2581\u062d\u0642\u0627": 1118,
  "\u2581different": 1119,
  "\u2581called": 1120,
  "\u2581\u0642\u0627\u0644": 1121,
  "\u2581\u062d\u0645\u0627\u064a\u0629": 1122,
  "\u2581approach": 1123,
  "\u2581\u0637\u0644\u0628": 1124,
  "\u2581statement": 1125,
  "es": 1126,
  ");": 1127,
  "\u2581\u0623\u0644\u0641": 1128,
  "CN": 1129,
  "\u2581force": 1130,
  "\u2581\u0634\u0643\u0631\u0627": 1131,
  "\u2581member": 1132,
  "\u2581private": 1133,
  "\u2581establishment": 1134,
  "\u2581consider": 1135,
  "\u2581\u0633\u0623": 1136,
  "\u2581\u0627\u0644\u0648\u062b\u064a\u0642\u0629": 1137,
  "\u2581status": 1138,
  "\u2581projects": 1139,
  "\u2581\u0648\u0627\u0644\u0627\u062c\u062a\u0645\u0627\u0639\u064a\u0629": 1140,
  "\u2581January": 1141,
  "\u2581rules": 1142,
  "\u2581impact": 1143,
  "\u2581another": 1144,
  "\u2581person": 1145,
  "\u2581\u0644\u0647\u0630\u0627": 1146,
  "\u2581\u0627\u0644\u0645\u0634\u0631\u0648\u0639": 1147,
  "\u2581organization": 1148,
  "\u2581\u0625\u062c\u0631\u0627\u0621\u0627\u062a": 1149,
  "\u2581together": 1150,
  "\u2581\u0627\u0644\u0623\u0648\u0631\u0648\u0628\u064a": 1151,
  "\u2581relating": 1152,
  "\u0645\u0627\u064a\u0648": 1153,
  "\u064c": 1154,
  "\u2581fact": 1155,
  "\u2581\u064a\u0628\u062f\u0648": 1156,
  "\u2581\u266a": 1157,
  "\u2581\u0633\u0646\u0648\u0627\u062a": 1158,
  "\u2581\u0625\u0644\u064a\u0647": 1159,
  "\u2581\u062f\u0648\u0644\u0629": 1160,
  "\u2581\u0633\u0628\u064a\u0644": 1161,
  "\u2581every": 1162,
  "\u2581done": 1163,
  "\u2581\u0627\u0644\u062d\u0643\u0648\u0645\u0627\u062a": 1164,
  "\u2581\u0645\u0631\u0643\u0632": 1165,
  "\u2019": 1166,
  "\u2581whether": 1167,
  "\u2581\u0648\u0644\u0645": 1168,
  "\u2581best": 1169,
  "\u2581found": 1170,
  "\u2581\u0648\u0647\u0630\u0627": 1171,
  "\u2581total": 1172,
  "\u2581\u0623\u0644\u0627": 1173,
  "\u2581inter": 1174,
  "\u2581\u0643\u0628\u064a\u0631\u0629": 1175,
  "\u2581okay": 1176,
  "\u2581Now": 1177,
  "\u2581II": 1178,
  "\u2581\u0627\u0644\u0628\u0631\u0627\u0645\u062c": 1179,
  "\u2581great": 1180,
  "f": 1181,
  "\u2581Palestinian": 1182,
  "\u2581\u0623\u0639\u0631\u0641": 1183,
  "\u2581\u0623\u0642\u0644": 1184,
  "\u2581took": 1185,
  "\u0627\u0646\u0638\u0631": 1186,
  "\u2581\u0627\u0644\u0635\u062d\u0629": 1187,
  "\u2581\u0644\u062a": 1188,
  "\u2581addressed": 1189,
  "\u2581\u0623\u0646\u0643": 1190,
  "see": 1191,
  "\u2581justice": 1192,
  "\u2581\u0648\u0627\u0644\u0645\u0646\u0638\u0645\u0627\u062a": 1193,
  "\u2581\u0627\u0644\u0646\u0627\u0633": 1194,
  "\u2581love": 1195,
  "\u2581received": 1196,
  "\u2581\u0627\u0644\u0642\u064a\u0627\u0645": 1197,
  "\u0637": 1198,
  "\u2581\u062e\u0627\u0635": 1199,
  "\u0623\u0628\u0631\u064a\u0644": 1200,
  "\u2581\u0623\u0631\u064a\u062f": 1201,
  "\u2581\u0648\u0627\u0644\u062a\u064a": 1202,
  "\u2581entitled": 1203,
  "\u258150": 1204,
  "\u2581provision": 1205,
  "\u2581These": 1206,
  "\u2581\u0623\u0643\u0628\u0631": 1207,
  "\u2581comprehensive": 1208,
  "\u2581\u0644\u0645\u0627": 1209,
  "\u2581\u0627\u0644\u0645\u0624\u0633\u0633\u0627\u062a": 1210,
  "\u2581\u0627\u0633\u062a\u0639\u0631\u0627\u0636": 1211,
  "\u2581discrimination": 1212,
  "\u2581\u0646\u0632\u0639": 1213,
  "\u064a\u0646\u0627\u064a\u0631": 1214,
  "\u2581therefore": 1215,
  "\u2581water": 1216,
  "\u2581\u0623\u0645\u0631": 1217,
  "\u2581annex": 1218,
  "\u2581around": 1219,
  "\u2581result": 1220,
  "\u2581expressed": 1221,
  "\u2581\u0627\u0644\u0645\u0633\u0627\u0648\u0627\u0629": 1222,
  "\u2581\u0627\u0644\u062a\u0642\u0627\u0631\u064a\u0631": 1223,
  "\u2581\u0647": 1224,
  "\u2581coordination": 1225,
  "\u2581responsibility": 1226,
  "\u2581legislation": 1227,
  "\u2581\u0627\u0644\u0627\u0633\u062a\u0634\u0627\u0631\u064a\u0629": 1228,
  "\u2581home": 1229,
  "\u2581\u0627\u0644\u0635\u0639\u064a\u062f": 1230,
  "\u2581costs": 1231,
  "\u2581especially": 1232,
  "\u2581personnel": 1233,
  "\u2581monitoring": 1234,
  "\u2581matter": 1235,
  "\u2581\u0627\u0644\u0635\u063a\u064a\u0631\u0629": 1236,
  "\u2581\u0627\u0644\u062c\u0646\u0627\u0626\u064a\u0629": 1237,
  "\u2581\u0645\u0646\u0639": 1238,
  "\u2581\u0627\u0644\u0625\u0642\u0644\u064a\u0645\u064a": 1239,
  "\u2581\u0648\u0643\u0627\u0646": 1240,
  "\u2581principles": 1241,
  "\u2581\u0627\u0644\u0639\u0631\u0628\u064a\u0629": 1242,
  "\u2581\u0644\u0645\u0643\u0627\u0641\u062d\u0629": 1243,
  "\u2581\u0628\u0647\u0630\u0627": 1244,
  "\u2581fully": 1245,
  "\u2581\u0623\u064a\u0646": 1246,
  "\u2581\u0625\u0632\u0627\u0621": 1247,
  "\u2581small": 1248,
  "\u2581Where": 1249,
  "n": 1250,
  "\u2581systems": 1251,
  "\u2581next": 1252,
  "\u2581implement": 1253,
  "\u2581Executive": 1254,
  "\u2581\u0623\u0645\u0627\u0645": 1255,
  "\u2581meet": 1256,
  "\u2581existing": 1257,
  "\u2581strengthen": 1258,
  "\u2581\u0627\u0644\u062e\u0628\u0631\u0627\u0621": 1259,
  "\u2581Arab": 1260,
  "\u2581domestic": 1261,
  "\u2581subject": 1262,
  "\u2581\u0623\u0639\u062a\u0642\u062f": 1263,
  "\u2581\u0627\u0644\u0642\u062f\u0631\u0627\u062a": 1264,
  "\u2581course": 1265,
  "\u2581decided": 1266,
  "\u2581\u0627\u0644\u062a\u0642\u062f\u0645": 1267,
  "\u2581\u0644\u064a\u0633\u062a": 1268,
  "\u2581\u0625\u0639\u062f\u0627\u062f": 1269,
  "\u2581\u0627\u0644\u0642\u0636\u0627\u0621": 1270,
  "\u25812.": 1271,
  "\u2581reporting": 1272,
  "\u2581believe": 1273,
  "\u2581included": 1274,
  "\u25811.": 1275,
  "\u2581procedures": 1276,
  "\u2581technology": 1277,
  "\u0630": 1278,
  "\u2581\u0622\u0628": 1279,
  "\u2581\u0644\u0643\u064a": 1280,
  "\u2581least": 1281,
  "\u2581\u0641\u0636\u0644\u0627": 1282,
  "\u2581criminal": 1283,
  "\u2581armed": 1284,
  "\u2581Act": 1285,
  "\u2581increased": 1286,
  "\u2581\u0627\u0644\u0645\u0634\u0627\u0631\u0643\u0629": 1287,
  "\u2581follow": 1288,
  "\u2581\u0644\u0647\u0630\u0647": 1289,
  "\u2581\u0645\u062e\u062a\u0644\u0641": 1290,
  "\u2581\u062d\u0633\u0628": 1291,
  "\u2581\u0627\u0639\u062a\u0645\u0627\u062f": 1292,
  "\u2581reported": 1293,
  "\u2581mechanisms": 1294,
  "\u2581obligations": 1295,
  "\u2581\u0627\u0644\u0645\u062f\u0646\u064a": 1296,
  "\u2581Just": 1297,
  "\u2581\u062d\u0627\u0644\u064a\u0627": 1298,
  "\u2581\u0646\u0642\u0635": 1299,
  "\u2581terms": 1300,
  "\u2581results": 1301,
  "\u2581problem": 1302,
  "\u2581five": 1303,
  "\u2581\u064a\u0643\u0646": 1304,
  "\u2581\u0639\u0628\u0631": 1305,
  "\u2581environment": 1306,
  "\u2581\u0645\u0643\u0627\u0646": 1307,
  "\u2581\u0627\u0644\u0623\u0635\u0644\u064a\u0629": 1308,
  "\u063a": 1309,
  "\u0635": 1310,
  "\u2581000": 1311,
  "\u2581\u0627\u0644\u0633\u0646\u062a\u064a\u0646": 1312,
  "\u2581\u0627\u0644\u062b\u0627\u0644\u062b\u0629": 1313,
  "\u2581\u0625\u0630": 1314,
  "\u2581\u0628\u063a\u064a\u0629": 1315,
  "\u2581Representative": 1316,
  "\u2581rule": 1317,
  "P": 1318,
  "\u2581amount": 1319,
  "\u2581\u0627\u0644\u062a\u0646\u0641\u064a\u0630": 1320,
  "\u2581\u0646\u0641\u0633\u0647": 1321,
  "\u2581practices": 1322,
  "\u2581\u0627\u0644\u0635\u0646\u062f\u0648\u0642": 1323,
  "\u2581sorry": 1324,
  "\u2581\u062d\u064a\u0646": 1325,
  "\u2581Is": 1326,
  ")\u061f": 1327,
  "\u2581\u0645\u0648\u0627\u0635\u0644\u0629": 1328,
  "\u2581\u0647\u064a\u0627": 1329,
  "\u2581adoption": 1330,
  "\u2581\u0646\u062a\u0627\u0626\u062c": 1331,
  "\u2581regarding": 1332,
  "\u2581\u0648\u0627\u0644\u0627\u062c\u062a\u0645\u0627\u0639\u064a": 1333,
  "\u0631\u0629": 1334,
  "\u062f\u0629": 1335,
  "\u2581\u0645\u0645\u062b\u0644": 1336,
  "\u2581\u0627\u0644\u0645\u0634\u0627\u0631\u064a\u0639": 1337,
  "\u2581agreement": 1338,
  "\u2581key": 1339,
  "\u2581\u0639\u0644\u0645\u0627": 1340,
  "\u0634": 1341,
  "\u2581\u0644\u0643\u0644": 1342,
  "\u2581\u0628\u0645": 1343,
  "\u2581\u062f\u0648\u0631": 1344,
  "\u2581standards": 1345,
  "\u2581One": 1346,
  "\u2581\u0644\u062f\u064a": 1347,
  "\u2581F": 1348,
  "\u2581America": 1349,
  "governmental": 1350,
  "\u2581food": 1351,
  "\u2581\u0627\u0644\u0627\u062d\u062a\u064a\u0627\u062c\u0627\u062a": 1352,
  "\u2581\u0661": 1353,
  "\u2581\u062a\u0642\u064a\u064a\u0645": 1354,
  "\u2581\u0627\u0644\u0646": 1355,
  "\u2581problems": 1356,
  "\u2581\u0644\u0641\u062a\u0631\u0629": 1357,
  "\u2581decisions": 1358,
  "\u2581four": 1359,
  "\u2581\u0643\u0645": 1360,
  "\u0645\u0646": 1361,
  "\u2581\u0627\u0644\u062d\u064a\u0627\u0629": 1362,
  "\u2581August": 1363,
  "\u2581\u0627\u0644\u0628\u0644\u0627\u063a": 1364,
  "\u2581\u0631\u062c\u0644": 1365,
  "\u2581consultations": 1366,
  "\u2581\u0635\u062d\u064a\u062d": 1367,
  "\u2581\u0628\u064a": 1368,
  "on": 1369,
  "B": 1370,
  "\u2581\u0627\u0644\u0635\u062d\u064a\u0629": 1371,
  "\u258140": 1372,
  "\u2581example": 1373,
  "\u2581contributions": 1374,
  "\u2581\u0627\u0644\u0643\u062b\u064a\u0631": 1375,
  "\u2581yet": 1376,
  "\u2581funds": 1377,
  "\u2581de": 1378,
  "\u2581\u0648\u0644": 1379,
  "\u2581service": 1380,
  "\u2581\u0628\u0639\u062b\u0629": 1381,
  "\u2581\u0645\u0646\u0638\u0648\u0645\u0629": 1382,
  "\u2581\u0627\u0644\u062c\u0631\u064a\u0645\u0629": 1383,
  ")\u061b": 1384,
  "\u25812009": 1385,
  "\u2581\u0627\u0644\u0645\u0639\u0642\u0648\u062f\u0629": 1386,
  "\u2581Advisory": 1387,
  "\u2581\u0627\u0644\u0646\u062d\u0648": 1388,
  "\u2581\u0627\u0644\u062d\u0642\u0648\u0642": 1389,
  "\u2581away": 1390,
  "\u064a\u0627\u062a": 1391,
  "\u2581mission": 1392,
  "\u2581\u0628\u0627\u0644\u0645": 1393,
  "\u2581\u0627\u0644\u0631\u0627\u0645\u064a\u0629": 1394,
  "\u2581Ministry": 1395,
  "\u2581\u0646\u0641\u0633": 1396,
  "\u2581improve": 1397,
  "\u2581\u0633\u064a\u0643\u0648\u0646": 1398,
  "\u2581thought": 1399,
  "\u2581risk": 1400,
  "--": 1401,
  "\u2581Iraq": 1402,
  "\u2581response": 1403,
  "\u2581\u0642\u0627\u0626\u0645\u0629": 1404,
  "\u2581behalf": 1405,
  "\u2581\u0648\u0627\u0644\u0623\u0645\u0646": 1406,
  "\u2581sure": 1407,
  "\u2581strengthening": 1408,
  "\u2581\u0627\u0644\u0644\u0627\u062c\u0626\u064a\u0646": 1409,
  "\u2581providing": 1410,
  "\u2581commitment": 1411,
  "\u2581\u064a\u0648\u062c\u062f": 1412,
  "\u2581cost": 1413,
  "\u2581\u0648\u0646": 1414,
  "\u2581\u0646\u0647\u0627\u064a\u0629": 1415,
  "\u2581When": 1416,
  "\u2581Ms": 1417,
  "\u2581victims": 1418,
  "\u2581February": 1419,
  "\u2581environmental": 1420,
  "\u2581Israel": 1421,
  "\u2581\u0636\u0631\u0648\u0631\u0629": 1422,
  "\u2581always": 1423,
  "\u2581\u0644\u0630\u0627": 1424,
  "\u2581\u0627\u0644\u0633\u064a\u062f\u0629": 1425,
  "\u2581\u0623\u0634\u0643\u0627\u0644": 1426,
  "\u2581\u0627\u0644\u062f\u0627\u062e\u0644\u064a\u0629": 1427,
  "\u2581\u0623\u062d\u0643\u0627\u0645": 1428,
  "\u2581business": 1429,
  "\u2581things": 1430,
  "\u2581\u0627\u0644\u0631\u062c\u0644": 1431,
  "\u2581land": 1432,
  "\u2581Are": 1433,
  "\u2581\u064a\u062c\u0631\u064a": 1434,
  "\u2581\u0648\u062a\u0639\u0632\u064a\u0632": 1435,
  "\u2581disarmament": 1436,
  "\u2581recent": 1437,
  "\u2581post": 1438,
  "\u2581\u0627\u062a\u0641\u0627\u0642": 1439,
  "\u2581\u0648\u064a\u0645\u0643\u0646": 1440,
  "\u2581due": 1441,
  "\u2581common": 1442,
  "\u2581anything": 1443,
  "\u2581\u0627\u0644\u0627": 1444,
  "\u2581\u0627\u0644\u062d\u0627\u0644\u0627\u062a": 1445,
  "\u2581\u0639\u0634\u0631": 1446,
  "\u25812010": 1447,
  "\u2581\u062a\u0646\u0638\u064a\u0645": 1448,
  "\u2581several": 1449,
  "\u2581government": 1450,
  "\u2581\u0627\u0644\u0628\u064a\u0626\u0629": 1451,
  ".\"": 1452,
  "r": 1453,
  "\u2581\u0648\u063a\u064a\u0631\u0647\u0627": 1454,
  "\u2581challenges": 1455,
  "\u2581Look": 1456,
  ".2": 1457,
  "\u2581\u0636\u0645\u0627\u0646": 1458,
  "\u2581re": 1459,
  "\u2581\u0627\u0644\u0633\u0644\u0637\u0627\u062a": 1460,
  "\u2581\u0634\u0628\u0627\u0637": 1461,
  "\u2581\u0643\u0644\u0627": 1462,
  "\u2581peacekeeping": 1463,
  "\u2581assessment": 1464,
  "\u2581\u0627\u0644\u062a\u062f\u0631\u064a\u0628": 1465,
  "\u2581\u0645\u0631\u062d\u0628\u0627": 1466,
  "\u2581\u0627\u0644\u0645\u0633\u0623\u0644\u0629": 1467,
  "\u2581\u064a\u0645\u0643\u0646\u0643": 1468,
  "\u2581Not": 1469,
  "\u2581indigenous": 1470,
  "\u2581secretariat": 1471,
  "\u2581\u0627\u0644\u0623\u0645\u0631\u064a\u0643\u064a\u0629": 1472,
  "\u2581name": 1473,
  "\u2581talk": 1474,
  "\u2581\u062c\u064a\u062f": 1475,
  "\u2581\u0628\u062d\u0642\u0648\u0642": 1476,
  "\u2581today": 1477,
  "\u2581\u0635\u0627\u062d\u0628": 1478,
  "\u2581\u0625\u0639\u0644\u0627\u0646": 1479,
  "\u2581\u0639\u0646\u0647\u0627": 1480,
  "\u2581\u0644\u0647\u0645": 1481,
  "\u2581office": 1482,
  "\u0623\u0648": 1483,
  "1": 1484,
  "\u2581\u0639\u062f\u0629": 1485,
  "\u2581East": 1486,
  "\u2581\u0623\u0639\u0644\u0645": 1487,
  "\u2581\u0627\u0644\u0642\u0636\u0627\u064a\u0627": 1488,
  "\u2581\u0644\u062a\u0639\u0632\u064a\u0632": 1489,
  "\u2581matters": 1490,
  "based": 1491,
  "\u2581needed": 1492,
  "\u0641\u0628\u0631\u0627\u064a\u0631": 1493,
  "\u2581\u062c\u0646\u0648\u0628": 1494,
  "\u2581terrorism": 1495,
  "\u2581\u0644\u0633\u062a": 1496,
  "\u2581develop": 1497,
  "\u2581\u0627\u0644\u0642\u0637\u0627\u0639": 1498,
  "\u2581\u0627\u0644\u0645\u0628\u0627\u062f\u0626": 1499,
  "\u2581clear": 1500,
  "\u0623\u063a\u0633\u0637\u0633": 1501,
  "\u2581provides": 1502,
  "\u2581serious": 1503,
  "().": 1504,
  "\u2581\u0627\u0644\u0645\u062f\u0646\u064a\u0629": 1505,
  "\u2581Service": 1506,
  "\u2581\u0627\u062c\u062a\u0645\u0627\u0639": 1507,
  "building": 1508,
  "\u2581actions": 1509,
  "\u25813.": 1510,
  "3": 1511,
  "\u2581Permanent": 1512,
  "\u2581whole": 1513,
  "\u25811999": 1514,
  "D": 1515,
  "\u2581days": 1516,
  "\u0627\u0645": 1517,
  "\u2581past": 1518,
  "\u2581\u0627\u0644\u062c\u0646\u0633\u064a\u0646": 1519,
  "\u2581Who": 1520,
  "\u2581money": 1521,
  "\u2581leave": 1522,
  "\u2581\u0627\u0644\u0625\u062f\u0627\u0631\u064a\u0629": 1523,
  "\u2581regular": 1524,
  "\u2581school": 1525,
  "\u2581significant": 1526,
  "\u2581\u0628\u062e\u064a\u0631": 1527,
  "\u2581ever": 1528,
  "\u2581\u0628\u0623\u0646\u0647": 1529,
  "\u2581\u0636\u0645\u0646": 1530,
  "\u2581\u0623\u0645": 1531,
  "\u2581space": 1532,
  "\u2581UNDP": 1533,
  "\u2581\u0627\u0644\u0623\u0633\u0627\u0633\u064a": 1534,
  "\u2581having": 1535,
  "\u2581\u064a\u0642\u0648\u0645": 1536,
  "\u2581\u0639\u0627\u0645\u0629": 1537,
  "\u2581reform": 1538,
  "\u2581keep": 1539,
  "\u2581initiatives": 1540,
  "\u2581\u0627\u0644\u0627\u062c\u062a\u0645\u0627\u0639\u0627\u062a": 1541,
  "\u2581girls": 1542,
  "\u2581night": 1543,
  "\u2581\u0627\u0644\u0634\u0627\u0645\u0644": 1544,
  "\u2581until": 1545,
  "\u2581\u0646\u0648\u0639": 1546,
  "\u2581dialogue": 1547,
  "\u2581crime": 1548,
  "\u2581become": 1549,
  "\u2581\u062d\u062f\u062b": 1550,
  "\u2581\u0633\u064a\u0627\u0642": 1551,
  "\u2581\u062a\u0642\u0627\u0631\u064a\u0631": 1552,
  "\u2581kind": 1553,
  "\u2581prevention": 1554,
  "\u2581open": 1555,
  "\u2581\u062a\u062a\u0639\u0644\u0642": 1556,
  "\u2581\u0623\u0639\u0644\u0627\u0647": 1557,
  "\u2581\u0627\u0644\u0623\u062e\u064a\u0631\u0629": 1558,
  "\u2581Thank": 1559,
  "\u2581biennium": 1560,
  "\u2581\u0627\u0644\u062a\u0642\u0646\u064a\u0629": 1561,
  "\u2581able": 1562,
  "\u2581\u0627\u0644\u0639\u062f\u064a\u062f": 1563,
  "\u2581\u064a\u0642\u062f\u0645": 1564,
  "\u2581\u0627\u0644\u0634\u0624\u0648\u0646": 1565,
  "\u2581third": 1566,
  "\u2581told": 1567,
  "\u2581\u0645\u0634\u0627\u0631\u064a\u0639": 1568,
  "\u2581application": 1569,
  "\u2581establish": 1570,
  "\u2581planning": 1571,
  "\u2581\u0648\u062c\u0647": 1572,
  "\u2581strategy": 1573,
  "\u2581practice": 1574,
  "\u2581\u0645\u062d\u062f\u062f\u0629": 1575,
  "\u2581documents": 1576,
  "un": 1577,
  "\u2581Chairman": 1578,
  "4": 1579,
  "\u2581lack": 1580,
  "\u2581His": 1581,
  "\u2581\u0648\u0642\u0627\u0644": 1582,
  "\u2581HIV": 1583,
  "\u2581\u0634\u064a\u0626\u0627": 1584,
  "\u2581\u062a\u0634\u0645\u0644": 1585,
  "\u2581\u062f\u0648\u0644": 1586,
  "\u2581\u0627\u0644\u062b\u0627\u0644\u062b": 1587,
  "\u2581\u062a\u0639\u0631\u0641": 1588,
  "\u2581\u0627\u0644\u0634\u0639\u0648\u0628": 1589,
  "\u2581\u0623\u0645\u0627": 1590,
  "\u2581arms": 1591,
  "\u2581\u0627\u0644\u062e\u0627\u0645\u0633\u0629": 1592,
  "\u2581\u0639\u0645\u0644\u0627": 1593,
  "\u2581\u062d\u0627\u0644": 1594,
  "\u2581\u0627\u0644\u062a\u0646\u0641\u064a\u0630\u064a": 1595,
  "\u2581date": 1596,
  "\u2581para": 1597,
  "\u2581\u0627\u0644\u062d\u062f": 1598,
  "\u2581\u0645\u062c\u0627\u0644\u0627\u062a": 1599,
  "\u2581equality": 1600,
  "\u2581peoples": 1601,
  "\u2581\u062e\u0627\u0631\u062c": 1602,
  "\u2581\u0628\u0627\u0621": 1603,
  "\u2581dated": 1604,
  "\u2581\u0625\u0645\u0643\u0627\u0646\u064a\u0629": 1605,
  "\u2581promotion": 1606,
  "\u2581missions": 1607,
  "\u2581light": 1608,
  "\u2581\u0628\u064a\u0627\u0646\u0627\u062a": 1609,
  "\u2581\u0627\u0644\u0648\u062b\u0627\u0626\u0642": 1610,
  "\u2581\u0644\u062f\u064a\u0643": 1611,
  "\u0651\u064f": 1612,
  "\u2581requests": 1613,
  "\u2581equipment": 1614,
  "\u2581main": 1615,
  "\u2581\u0627\u0644\u0645\u0634\u062a\u0631\u0643": 1616,
  "\u2581free": 1617,
  "\u2581\u0648\u0625\u0646": 1618,
  "\u2581growth": 1619,
  "\u2581\u0645\u062f\u0649": 1620,
  "\u2581research": 1621,
  "\u2581forces": 1622,
  "\u2581procedure": 1623,
  "\u2581\u0644\u0644\u0641\u062a\u0631\u0629": 1624,
  "term": 1625,
  "\u2581\u064a\u062a\u0635\u0644": 1626,
  "\u2581focus": 1627,
  "\u2581\u0635\u0646\u062f\u0648\u0642": 1628,
  "\u2581While": 1629,
  "\u2581\u0627\u0644\u0639\u0631\u0627\u0642": 1630,
  "\u2581\u062d": 1631,
  "\u2581however": 1632,
  "\u2581\u0627\u0644\u0625\u0639\u0644\u0627\u0645": 1633,
  "\u2581\u0639\u0646\u0647": 1634,
  "\u2581\u062a\u0645\u0648\u064a\u0644": 1635,
  "\u2581acts": 1636,
  "\u2581\u0631\u0633\u0627\u0644\u0629": 1637,
  "\u2581list": 1638,
  "\u2581administrative": 1639,
  "\u2581wish": 1640,
  "\u2581\u062a\u0645\u0627\u0645\u0627": 1641,
  "\u2581\u0627\u0644\u0645\u0624\u0642\u062a": 1642,
  "\u2581\u0627\u0644\u0627\u062a\u062c\u0627\u0631": 1643,
  "\u2581\u0627\u0644\u0623\u0631\u0627\u0636\u064a": 1644,
  "\u2581\u0644\u062a\u0646\u0641\u064a\u0630": 1645,
  "\u2581\u0648\u0625\u0644\u0649": 1646,
  "\u2581\u0627\u0644\u0641\u0635\u0644": 1647,
  "\u2581involved": 1648,
  "\u2581\u0627\u0644\u062c\u0632\u0621": 1649,
  "\u2581\u0648\u0632\u0627\u0631\u0629": 1650,
  "\u2581violations": 1651,
  "\u2581Covenant": 1652,
  "\u2581\u0639\u0634\u0631\u0629": 1653,
  "\u2581point": 1654,
  "\u062a\u0646\u0627": 1655,
  "\u2581\u0627\u0644\u0645\u0646\u0627\u0639\u0629": 1656,
  "\u2581priority": 1657,
  "\u2581\u0648\u063a\u064a\u0631": 1658,
  "\u0647\u0646": 1659,
  "\u2581\u0627\u0644\u062d\u0627\u0644\u064a\u0629": 1660,
  "\u2581body": 1661,
  "\u2581\u0627\u0644\u0642\u0631\u0627\u0631\u0627\u062a": 1662,
  "\u2581Commissioner": 1663,
  "\u2581\u0627\u0644\u062a\u062c\u0627\u0631\u064a\u0629": 1664,
  "\u2581trafficking": 1665,
  "\u2581\u0627\u0646\u0647\u0627": 1666,
  "\u2581certain": 1667,
  "\u2581prevent": 1668,
  "\u2581far": 1669,
  "\u2581\u0645\u0633\u0627\u0639\u062f\u0629": 1670,
  "\u2581real": 1671,
  "\u2581bring": 1672,
  "\u062e": 1673,
  "\u2581Director": 1674,
  "\u2581making": 1675,
  "\u2581Information": 1676,
  "\u2581\u0628\u0643": 1677,
  "\u2581\u062a\u0631\u064a\u062f": 1678,
  "\u2581\u0628\u0627\u0644\u0641\u0639\u0644": 1679,
  "\u2581living": 1680,
  "\u2581responsible": 1681,
  "\u2581\u0627\u0644\u0627\u062c\u062a\u0645\u0627\u0639\u064a": 1682,
  "\u2581\u0627\u0644\u0623\u0631\u0636": 1683,
  "\u2581M": 1684,
  "\u2581\u0644\u0644\u062f\u0648\u0644": 1685,
  "\u2581THE": 1686,
  "\u2581\u062c\u0647\u0648\u062f": 1687,
  "\u2581\u0627\u0644\u0645\u0633\u0644\u062d\u0629": 1688,
  "\u2581\u062a\u0639\u0645\u0644": 1689,
  "\u2581\u0627\u0646\u0638\u0631": 1690,
  "\u2581\u062b\u0644\u0627\u062b\u0629": 1691,
  "\u2581\u0627\u0644\u0627\u0633\u062a\u0639\u0631\u0627\u0636": 1692,
  "\u2581treaty": 1693,
  "\u2581cultural": 1694,
  "\u2581\u0623\u0648\u0644\u0627": 1695,
  "\u2581\u0645\u0628\u0627\u0634\u0631\u0629": 1696,
  "\u2581months": 1697,
  "\u2581\u062a\u0632\u0627\u0644": 1698,
  "\u2581\u0639\u0644\u064a\u0646\u0627": 1699,
  "\u2581\u0627\u0644\u062a\u0646\u0633\u064a\u0642": 1700,
  "\u2581\u0646\u0633\u0628\u0629": 1701,
  "\u2581\u0627\u0644\u0639\u0647\u062f": 1702,
  "\u2581recommended": 1703,
  "\u2581line": 1704,
  "\u2581production": 1705,
  "*": 1706,
  "\u2581\u0646\u062a\u064a\u062c\u0629": 1707,
  "\u2581agreements": 1708,
  "\u2581\u0648\u0633\u064a": 1709,
  "\u2581\u0627\u0644\u062d\u0627\u062c\u0629": 1710,
  "\u2581Minister": 1711,
  "l": 1712,
  "\u2581position": 1713,
  "\u2581An": 1714,
  "\u2581\u062a\u0634\u064a\u0631": 1715,
  "\".": 1716,
  "\u2581Treaty": 1717,
  "\u2581early": 1718,
  "\u2581operational": 1719,
  "\u2581left": 1720,
  "\u2581employment": 1721,
  "\u2581treatment": 1722,
  "\u2581Your": 1723,
  "\u2581Can": 1724,
  "\u2581\u0627\u0644\u0623\u0645\u0648\u0627\u0644": 1725,
  "\u2581\u0643\u062b\u064a\u0631\u0627": 1726,
  "\u062a\u0627\u0646": 1727,
  "\u2581section": 1728,
  "\u2581committed": 1729,
  "\u2581instruments": 1730,
  "\u2581\u0662": 1731,
  "\u0647\u0644": 1732,
  "\u2581discussion": 1733,
  "\u2581\u062a\u0643\u0627\u0644\u064a\u0641": 1734,
  "\u2581\u0644\u062a\u062d\u0642\u064a\u0642": 1735,
  "\u2581Centre": 1736,
  "\u2581China": 1737,
  "\u2581\u0644\u0623": 1738,
  "\u2581\u0627\u0644\u0645\u0632\u064a\u062f": 1739,
  "\u2581guy": 1740,
  "\u2581statements": 1741,
  "\u2581\u0627\u0644\u0648\u0635\u0648\u0644": 1742,
  "\u2581\u0628\u062f": 1743,
  "\u2581\u062a\u0637\u0644\u0628": 1744,
  "\u2581Tribunal": 1745,
  "\u2581please": 1746,
  "\u2581Please": 1747,
  "\u2581achieve": 1748,
  "\u2581\u0628\u0647\u0630\u0647": 1749,
  "\u2581few": 1750,
  "\u2581\u0625\u0633\u0631\u0627\u0626\u064a\u0644": 1751,
  "\u2581\u0627\u0644\u0645\u0645\u062b\u0644": 1752,
  "\u2581rate": 1753,
  "\u2581funding": 1754,
  "\u2581war": 1755,
  "\u2581objectives": 1756,
  "\u2581annual": 1757,
  "\u2581\u0627\u0630\u0627": 1758,
  "h": 1759,
  "\u2581sexual": 1760,
  "\u2581\u0627\u0644\u0648\u0643\u0627\u0644\u0627\u062a": 1761,
  "\u2581mind": 1762,
  "\u2581*": 1763,
  "(.": 1764,
  "\u2581\u0645\u0634\u0627\u0631\u0643\u0629": 1765,
  "\u2581\u0627\u0644\u0627\u0633\u062a\u0631\u0627\u062a\u064a\u062c\u064a\u0629": 1766,
  "\u2581form": 1767,
  "\u2581\u0625\u0636\u0627\u0641\u064a\u0629": 1768,
  "to": 1769,
  "\u2581\u0627\u0644\u0633\u0646\u0648\u0627\u062a": 1770,
  "\u2581strategies": 1771,
  "\u2581\u0644\u0644\u062a\u0646\u0645\u064a\u0629": 1772,
  "\u2581\u2022": 1773,
  "\u2581\u0644\u062f\u064a\u0646\u0627": 1774,
  "\u2581\u062a\u0641\u0639\u0644": 1775,
  "\u2581purpose": 1776,
  "\u2581\u0627\u0644\u062c\u062f\u0648\u0644": 1777,
  "\u2581partners": 1778,
  "\u2581play": 1779,
  "\u2581self": 1780,
  "\u2581Democratic": 1781,
  "\u2581laws": 1782,
  "\u2581steps": 1783,
  "\u2581\u0644\u062c\u0645\u064a\u0639": 1784,
  "\u2581questions": 1785,
  "\u2581others": 1786,
  "\u2581Agenda": 1787,
  "\u2581\u0627\u0644\u062a\u0648\u0635\u064a\u0627\u062a": 1788,
  "\u2581\u0627\u0644\u0639\u0633\u0643\u0631\u064a\u0629": 1789,
  "\u2581\u0628\u062f\u0648\u0646": 1790,
  "\u2581official": 1791,
  "\u0640\u0640\u0640\u0640": 1792,
  "\u2581Division": 1793,
  "\u2581reduction": 1794,
  "\u2581Charter": 1795,
  "\u25812011": 1796,
  "\u2581Good": 1797,
  "\u2581H": 1798,
  "\u2581age": 1799,
  "\u2581promoting": 1800,
  "\u2581interest": 1801,
  "\u2581individual": 1802,
  "\u2581text": 1803,
  "\u2581notes": 1804,
  "\u2581property": 1805,
  "\u2581\u062a\u0637\u0628\u064a\u0642": 1806,
  "\u2581100": 1807,
  "\u2581organized": 1808,
  "\u2581implementing": 1809,
  "\u2581York": 1810,
  "\u2581\u0623\u0644\u064a\u0633": 1811,
  "\u2581\u062d\u0644": 1812,
  "\u2581\u0646\u0645\u0648\u0627": 1813,
  "\u2581\u0627\u0644\u0645\u0646\u0627\u062e": 1814,
  "\u2581protect": 1815,
  "\u2581performance": 1816,
  "\u2581\u0647\u0624\u0644\u0627\u0621": 1817,
  "\u2581Kingdom": 1818,
  "\u2581\u0627\u0644\u0623\u0641\u0631\u064a\u0642\u064a": 1819,
  "\u2581greater": 1820,
  "\u2581equal": 1821,
  "\u2581six": 1822,
  "\u2581\u0634\u0624\u0648\u0646": 1823,
  "\u2581\u0627\u0644\u062a\u0645\u0648\u064a\u0644": 1824,
  "\u2581\u0627\u0644\u0645\u062c\u0627\u0644": 1825,
  "\u2581\u062f\u0627\u0626\u0645\u0627": 1826,
  "\u2581large": 1827,
  "\u2581death": 1828,
  "\u2581Other": 1829,
  "\u2581posts": 1830,
  "\u2581plans": 1831,
  "\u2581aimed": 1832,
  "\u2581approved": 1833,
  "\u2581close": 1834,
  "\u2581\u062a\u0648\u0635\u064a\u0627\u062a": 1835,
  "\u2581Panel": 1836,
  "\u2581previous": 1837,
  ".5": 1838,
  "\u2581\u0644\u0634\u0624\u0648\u0646": 1839,
  "\u064a\u0631": 1840,
  "\u062f\u064a": 1841,
  "\u2581\u0628\u0627\u0644\u062a\u0639\u0627\u0648\u0646": 1842,
  "\u2581proposals": 1843,
  "\u2581Get": 1844,
  "\u2581\u0627\u0644\u062d\u0645\u0627\u064a\u0629": 1845,
  "\u2581\u0627\u0644\u062f\u0627\u062e\u0644\u064a": 1846,
  "\u2581forms": 1847,
  "\u2581study": 1848,
  "\u2581\u0627\u0644\u062a\u0648\u062c\u064a\u0647\u064a\u0629": 1849,
  "\u2581\u0627\u0644\u0645\u062e\u062f\u0631\u0627\u062a": 1850,
  "\u2581issued": 1851,
  "\u2581\u0627\u0644\u0646\u062a\u0627\u0626\u062c": 1852,
  "\u2581Central": 1853,
  "\u2581adequate": 1854,
  "\u2581arrangements": 1855,
  ".6": 1856,
  "\u2581\u0647\u0645": 1857,
  "\u25811998": 1858,
  "\u2581facilitate": 1859,
  "\u2581\u0627\u0644\u062c\u0646\u0633": 1860,
  "\u2581supported": 1861,
  "\u2581\u0627\u0644\u0637\u0627\u0642\u0629": 1862,
  "\u2581joint": 1863,
  "\u2581\u0644\u0636\u0645\u0627\u0646": 1864,
  "\u2581understanding": 1865,
  "\u2581essential": 1866,
  "\u2581awareness": 1867,
  "\u2581energy": 1868,
  "\u2581\u0646\u0642\u0644": 1869,
  "\u2581pursuant": 1870,
  "\u2581knowledge": 1871,
  "\u2581\u0627\u0644\u062c\u062f\u064a\u062f": 1872,
  "\u2581\u0627\u0644\u062d\u062f\u0648\u062f": 1873,
  "\u2581principle": 1874,
  "\u2581\u0627\u0644\u0645\u062d\u0644\u064a": 1875,
  "\u2581feel": 1876,
  "AC": 1877,
  "\u2581G": 1878,
  "\u2581R": 1879,
  "tergovernmental": 1880,
  "\u2581won": 1881,
  "\u2581\u0627\u0644\u0642\u0636\u0627\u0626\u064a\u0629": 1882,
  "M": 1883,
  "\u201d.": 1884,
  "\u2581\u0627\u0644\u0633\u0646\u0629": 1885,
  "level": 1886,
  "\u2581\u0627\u0644\u062e\u0627\u0631\u062c\u064a\u0629": 1887,
  "\u2581\u0627\u0644\u062a\u0627\u0644\u064a": 1888,
  "\u25814.": 1889,
  "\u2581\u0627\u0644\u0646\u0645\u0648": 1890,
  "\u2581prepared": 1891,
  "\u2581nothing": 1892,
  "\u2581coming": 1893,
  "T": 1894,
  "\u2581old": 1895,
  "\u2581\u0627\u0644\u0647\u062f\u0641": 1896,
  "\u2581investment": 1897,
  "\u0627\u0644\u0645": 1898,
  "\u2581\u0627\u0644\u062e\u062f\u0645\u0629": 1899,
  "\u2581\u0627\u0644\u0628\u0631\u0648\u062a\u0648\u0643\u0648\u0644": 1900,
  "\u2581assist": 1901,
  "\u2581carried": 1902,
  "\u2581\u0641\u062d\u0633\u0628": 1903,
  "\u2581Millennium": 1904,
  "\u2581building": 1905,
  "\u2581\u0627\u0644\u0633\u0644\u0637\u0629": 1906,
  "\u2581stated": 1907,
  "\u2581\u0627\u0644\u0645\u0627\u0644\u064a": 1908,
  "\u2581UN": 1909,
  "\u2581enhance": 1910,
  "\u2581\u062d\u0633\u0646": 1911,
  "\u2581\u0627\u0644\u062d\u0631\u0628": 1912,
  ".3": 1913,
  "\u2581\u0644\u0644\u062c\u0645\u0639\u064a\u0629": 1914,
  "\u2581\u0627\u0644\u0648\u0641\u0648\u062f": 1915,
  "\u2581\u0627\u0644\u0631\u0627\u0628\u0639\u0629": 1916,
  "\u2581vote": 1917,
  "\u2581\u0623\u0648\u0631\u0648\u0628\u0627": 1918,
  "\u2581\u0627\u0644\u0639\u0645\u0644\u064a\u0627\u062a": 1919,
  "\u2581\u0627\u0644\u0627\u0646": 1920,
  "\u2581recommendation": 1921,
  "\u2581Bank": 1922,
  "\u2581foreign": 1923,
  "\u2581came": 1924,
  "\u2581Russian": 1925,
  "\u2581guys": 1926,
  "\u2581basic": 1927,
  "\u2581\u0627\u0644\u062a\u0643\u0627\u0644\u064a\u0641": 1928,
  "\u2581evidence": 1929,
  "\u2581\u0623\u064a\u0629": 1930,
  "\u2581\u0623\u0641\u0631\u0627\u062f": 1931,
  "\u2581\u0627\u0644\u0648\u0627\u0642\u0639": 1932,
  "\u2581\u0648\u0627\u0644\u062a\u0639\u0627\u0648\u0646": 1933,
  "\u2581Geneva": 1934,
  "\u2581\u0622\u0633\u064a\u0627": 1935,
  "\u064a\u0647": 1936,
  "k": 1937,
  "\u2581author": 1938,
  "\u2581cannot": 1939,
  "\u2581\u0645\u0633\u0627\u0626\u0644": 1940,
  "\u2581communities": 1941,
  "\u2581nature": 1942,
  "\u2581delegations": 1943,
  "\u2581\u0625\u0642\u0627\u0645\u0629": 1944,
  "\u2581power": 1945,
  "\u2581hope": 1946,
  "\u2581expected": 1947,
  "\u2581analysis": 1948,
  "\u2581\u062f\u0648\u0644\u064a\u0629": 1949,
  "\u2581communication": 1950,
  "\u2581undertaken": 1951,
  "\u2581Criminal": 1952,
  "\u2581potential": 1953,
  "\u2581\u0627\u0644\u0645\u064a\u0627\u0647": 1954,
  "\u2581\u0627\u0633\u062a\u0631\u0627\u062a\u064a\u062c\u064a\u0629": 1955,
  "\u2581\u0627\u0644\u0647\u064a\u0626\u0627\u062a": 1956,
  "\u2581offices": 1957,
  "\u2581house": 1958,
  "\u2581\u0645\u0631\u0627\u0639\u0627\u0629": 1959,
  "\u2581income": 1960,
  "\u2581Trade": 1961,
  "\u25811995": 1962,
  "\u2581O": 1963,
  "\u0646\u0649": 1964,
  "\u2581\u0663": 1965,
  "\u2581\u0648\u0628\u0646\u0627\u0621": 1966,
  ".4": 1967,
  "\u2581market": 1968,
  "\u2581young": 1969,
  "\u2581\u0627\u0644\u0641\u0636\u0627\u0621": 1970,
  "\u2581\u064a\u062d\u062f\u062b": 1971,
  "\u2581\u064a\u062a\u0639\u064a\u0646": 1972,
  "\u2581proposal": 1973,
  "\u2581See": 1974,
  "\u2581doesn": 1975,
  "\u2581\u0644\u0646\u0627": 1976,
  "\u2581aspects": 1977,
  "\u2581\u0644\u0623\u063a\u0631\u0627\u0636": 1978,
  "\u2581\u0645\u0648\u0627\u0631\u062f": 1979,
  "\u2581\u0623\u064a\u0647\u0627": 1980,
  "\u2581\u0627\u0644\u0645\u0633\u062a\u0642\u0628\u0644": 1981,
  "\u2581\u0627\u0644\u062a\u0627\u0628\u0639": 1982,
  "\u2581fundamental": 1983,
  "\u2581once": 1984,
  "\u2581implemented": 1985,
  "\u2581ensuring": 1986,
  "\u2581Federation": 1987,
  "\u2581Some": 1988,
  "\u2581\u0627\u0644\u0643\u0627\u0645\u0644": 1989,
  "\u2581\u0627\u0644\u062d\u0643\u0645": 1990,
  "\u2581\u0627\u0644\u0623\u0641\u0631\u064a\u0642\u064a\u0629": 1991,
  "\u2581\u0627\u0644\u062f\u0627\u0626\u0645": 1992,
  "\u2581\u0627\u0644\u0627\u062a\u0641\u0627\u0642": 1993,
  "\u2581opportunity": 1994,
  "\u2581experts": 1995,
  "\u2581\u0645\u0639\u0627\u0647\u062f\u0629": 1996,
  "\u2581\u0648\u062b\u0627\u0626\u0642": 1997,
  "\u2581often": 1998,
  "6": 1999,
  "\u0633\u064a": 2000,
  "\u2581\u0623\u0633\u062a\u0637\u064a\u0639": 2001,
  "\u2581\u062a\u0634\u0643\u0644": 2002,
  "\u2581contribute": 2003,
  "\u2581Implementation": 2004,
  "the": 2005,
  "\u2581\u0627\u0644\u0645\u0639\u0627\u064a\u064a\u0631": 2006,
  "\u2581\u0642\u0627\u0645": 2007,
  "\u2581d": 2008,
  "\u2581informed": 2009,
  "\u062a\u0647\u0645": 2010,
  "\u2581act": 2011,
  "\u2581seen": 2012,
  "\u2581Summit": 2013,
  "\u2581\u0627\u0644\u0642\u0645\u0629": 2014,
  "\u2581affected": 2015,
  "\u2581\u0627\u0644\u0647\u064a\u0626\u0629": 2016,
  "\u2581pay": 2017,
  "\u2581\u0627\u0644\u0631\u0639\u0627\u064a\u0629": 2018,
  "\u2581letter": 2019,
  "\u2581evaluation": 2020,
  "\u2581\u0627\u0644\u0645\u0641\u0648\u0636\u064a\u0629": 2021,
  "\u2581Go": 2022,
  "\u2581OF": 2023,
  "\u2581Israeli": 2024,
  "\u2581fifty": 2025,
  "\u2581connection": 2026,
  "\u2581\u062a\u0646\u0633\u064a\u0642": 2027,
  "\u2581natural": 2028,
  "\u2581negotiations": 2029,
  "\u2581\u0627\u0644\u0628\u062d\u0631": 2030,
  "\u2581everything": 2031,
  "\u2581guidelines": 2032,
  "\u2581\u0645\u0648\u0638\u0641\u064a": 2033,
  "\u2581lot": 2034,
  "\u2581\u0627\u0644\u062d\u0633\u0627\u0628\u0627\u062a": 2035,
  "\u2581live": 2036,
  "\u2581\u0628\u0647\u062f\u0641": 2037,
  "\u2581conduct": 2038,
  "\u0645\u0629": 2039,
  "\u2581People": 2040,
  "\u2581Asia": 2041,
  "\u25812012": 2042,
  "\u2581\u0623\u0646\u0646\u064a": 2043,
  "\u2581Review": 2044,
  "\u2581\u0648\u0633\u062a": 2045,
  "\u2581goals": 2046,
  "\u2581forward": 2047,
  "\u2581exchange": 2048,
  "\u2581understand": 2049,
  "\u2581\u0627\u0644\u062a\u0646\u0641\u064a\u0630\u064a\u0629": 2050,
  "\u2581show": 2051,
  "\u2581During": 2052,
  "\u2581strategic": 2053,
  "\u2581thus": 2054,
  "\u2581manner": 2055,
  "\u062a\u0643\u0644\u0645": 2056,
  "\u2581court": 2057,
  "\u2581\u0627\u0644\u0627\u062a\u0635\u0627\u0644": 2058,
  "\u2581\u0628\u0635\u0641\u0629": 2059,
  "\u2581wanted": 2060,
  "\u2581hear": 2061,
  "\u2581facilities": 2062,
  "\u2581Plan": 2063,
  "\u2581financing": 2064,
  "\u2581limited": 2065,
  "st": 2066,
  "\u0661": 2067,
  "\u258160": 2068,
  "()": 2069,
  "\u2581\u0633\u064a\u0627\u0633\u0627\u062a": 2070,
  "\u2581\u0648\u0627\u0644\u062e\u0645\u0633\u064a\u0646": 2071,
  "\u2581\u0627\u0644\u0645\u0645\u0627\u0631\u0633\u0627\u062a": 2072,
  "5": 2073,
  "ers": 2074,
  "\u2581job": 2075,
  "\u2581authority": 2076,
  "\u2581Justice": 2077,
  "\u0644\u064a": 2078,
  "\u2581\u0627\u0644\u0645\u062d\u0631\u0632": 2079,
  "\u2581\u0645\u0624\u0633\u0633\u0627\u062a": 2080,
  "\u2581effect": 2081,
  "\u2581opportunities": 2082,
  "\u2581hours": 2083,
  "\u2581\u0648\u0637\u0646\u064a\u0629": 2084,
  "\u0628\u0644": 2085,
  "\u0648\u062f": 2086,
  "\u2581\u0627\u0644\u0631\u063a\u0645": 2087,
  "\u2581\u0627\u0644\u0642\u0644\u0642": 2088,
  "\u2581\u0648\u062d\u062f\u0629": 2089,
  "\u2581\u064a\u0632\u0627\u0644": 2090,
  "\u2581\u0631": 2091,
  "\u2581\u0627\u0644\u0623\u062c\u0644": 2092,
  "\u2581\u063a\u0631\u0641\u0629": 2093,
  "\u2581\u0648\u0644\u0627\u064a\u0629": 2094,
  "\u2581refugees": 2095,
  "\u2581L": 2096,
  "\u2581stop": 2097,
  "\u064a\u064a\u0646": 2098,
  "\u2581\u0642\u062f\u0645": 2099,
  "\u2581experience": 2100,
  "\u2581individuals": 2101,
  "\u258135": 2102,
  "\u2581Cooperation": 2103,
  "\u2581met": 2104,
  "\u2581\u0627\u0644\u0627\u0639\u062a\u0628\u0627\u0631": 2105,
  "\u2581\u0644\u0644\u0628\u0644\u062f\u0627\u0646": 2106,
  "\u2581T": 2107,
  "\u2581\u0633\u064a\u062f\u064a": 2108,
  "\u2581Did": 2109,
  "\u2581independent": 2110,
  "\u2581Meeting": 2111,
  "\u2581Non": 2112,
  "\u2581mechanism": 2113,
  "\u2581less": 2114,
  "\u2581currently": 2115,
  "\u2581freedom": 2116,
  "\u2581un": 2117,
  "\u2581commitments": 2118,
  "\u2581deal": 2119,
  "\u2581\u062c\u0646\u064a\u0641": 2120,
  "\u2581\u0623\u0648\u062f": 2121,
  "\u2581\u0627\u0644\u0642\u0648\u0627\u062a": 2122,
  "\u2581face": 2123,
  "\u2581return": 2124,
  "\u2581remain": 2125,
  "\u2581\u062b\u0644\u0627\u062b": 2126,
  "\u2581\u0642\u0631\u0627\u0631\u0627\u062a": 2127,
  "\u2581Agreement": 2128,
  "\u2581hand": 2129,
  "\u2581\u0627\u0644\u062f\u0627\u0626\u0645\u0629": 2130,
  "\u2581\u0631\u0635\u062f": 2131,
  "\u2581\u0627\u0644\u0646\u0642\u0644": 2132,
  "\u2581\u0627\u0644\u0637\u0644\u0628": 2133,
  "\u2581referred": 2134,
  "\u2581\u0627\u0644\u0643\u0648\u0646\u063a\u0648": 2135,
  "\u2581recognized": 2136,
  "\u25815.": 2137,
  "\u2581\u0627\u0644\u0645\u062d\u062f\u062f\u0629": 2138,
  "\u2581\u0644\u0644\u063a\u0627\u064a\u0629": 2139,
  "\u2581Management": 2140,
  "\u2581V": 2141,
  "\u2581Under": 2142,
  "\u2581\u0627\u0644\u0642\u0648\u0627\u0646\u064a\u0646": 2143,
  "\u2581\u0645\u062a": 2144,
  "\u2581\u0623\u0645\u0648\u0631": 2145,
  "\u2581functions": 2146,
  "\u2581quality": 2147,
  "\u2581submit": 2148,
  "\u0631\u062a": 2149,
  "\u2581\u0645\u0634\u0643\u0644\u0629": 2150,
  "\u2581\u0627\u0644\u0645\u0627\u0636\u064a": 2151,
  "\u2581\u064a\u0634\u0643\u0644": 2152,
  "\u2581\u0627\u0644\u0645\u0642\u0631\u0631\u0629": 2153,
  "\u2581III": 2154,
  "\u0646\u062a": 2155,
  "\u2581contribution": 2156,
  "\u2581Code": 2157,
  "\u2581alia": 2158,
  "\u2581\u0627\u0644\u0633\u0627\u062f\u0633\u0629": 2159,
  "\u2581enough": 2160,
  "\u2581\u0641\u0639\u0644": 2161,
  "\u2581happened": 2162,
  "\u2581\u0639\u0631\u0636": 2163,
  "\u2581\u0641\u0631\u0635": 2164,
  "\u2581Then": 2165,
  "\u2581brought": 2166,
  "\u2581girl": 2167,
  "\u2581Global": 2168,
  "\u2581\u0627\u0644\u0642\u0627\u0646\u0648\u0646\u064a": 2169,
  "\u2581recommends": 2170,
  "\u2581rural": 2171,
  "\u2581\u0644\u0645\u062f\u0629": 2172,
  "\u2581transfer": 2173,
  "\u2581\u0634\u0643\u0644": 2174,
  "\u2581\u0648\u0625\u0639\u0627\u062f\u0629": 2175,
  "\u2581\u064a\u0645\u0643\u0646\u0646\u064a": 2176,
  "\u2581processes": 2177,
  "\u2581\u0627\u0644\u062a\u0642\u064a\u064a\u0645": 2178,
  "\u2581climate": 2179,
  "\u2581\u0648\u062a\u0642\u062f\u064a\u0645": 2180,
  "\u2581\u0647\u064a\u0626\u0629": 2181,
  "\u2581\u0648\u0623\u0646\u0627": 2182,
  "\u2581\u0627\u0644\u0645\u0648\u0636\u0648\u0639": 2183,
  "\u2581\u0648\u062a\u0646\u0641\u064a\u0630": 2184,
  "\u2581\u0645\u062e\u062a\u0644\u0641\u0629": 2185,
  "\u0628\u064a": 2186,
  "\u2581\u0645\u0639\u0638\u0645": 2187,
  "\u2581\u062a\u0642\u0631\u064a\u0631\u0627": 2188,
  "\u2581concerns": 2189,
  "\u2581\u064a\u0639\u0646\u064a": 2190,
  "\u2581\u0644\u0644\u0645\u0631\u0623\u0629": 2191,
  "\u2581\u062a\u0637\u0648\u064a\u0631": 2192,
  "\u2581heard": 2193,
  "\u2581increasing": 2194,
  "\u2581later": 2195,
  "\u0644\u062a": 2196,
  "\u2581\u0627\u0644\u0628\u0631\u0646\u0627\u0645\u062c\u064a\u0629": 2197,
  "\u2581room": 2198,
  "\u2581\u202b": 2199,
  "\u0662": 2200,
  "\u2581i": 2201,
  "\u2581\u0631\u0633\u0645\u064a\u0629": 2202,
  "\u2581\u0645\u062d\u0643\u0645\u0629": 2203,
  "\u2581wrong": 2204,
  "\u2581crimes": 2205,
  "\u2581\u0627\u0644\u0628\u064a\u0626\u064a\u0629": 2206,
  "\u2581\u0627\u0644\u062c\u0647\u0627\u062a": 2207,
  "\u0639\u062f": 2208,
  "\u2581\u0633\u0648\u0627\u0621": 2209,
  "\u2581\u0644\u0645\u0646\u0639": 2210,
  "\u2581final": 2211,
  "\u2581below": 2212,
  "\u2581articles": 2213,
  "\u2581\u0627\u0644\u0633\u064a\u0627\u0633\u064a": 2214,
  "\u2581\u0627\u0644\u0645\u062b\u0627\u0644": 2215,
  "\u2581labour": 2216,
  "\u2581officials": 2217,
  "\u2581\u064a\u062c\u0648\u0632": 2218,
  "\u2581\u0646\u064a\u0648\u064a\u0648\u0631\u0643": 2219,
  "\u2581\u0627\u0644\u0633": 2220,
  "\u2581\u0627\u0644\u0639\u0627\u062f\u064a\u0629": 2221,
  "\u2581start": 2222,
  "\u2581Right": 2223,
  "\u2581asked": 2224,
  "\u0627\u0633": 2225,
  "\u2581\u0645\u0639\u0627\u0644\u062c\u0629": 2226,
  "\u2581\u0628\u064a\u0646\u0645\u0627": 2227,
  "\u2581\u0627\u0644\u0645\u0631\u0643\u0632": 2228,
  "\u2581drug": 2229,
  "\u2581\u0627\u0644\u0623": 2230,
  "\u2581former": 2231,
  "\u2581exercise": 2232,
  "\u2581\u0627\u0644\u0637\u0628\u064a\u0639\u064a\u0629": 2233,
  "\u2581Al": 2234,
  "\u2581changes": 2235,
  "\u2581reference": 2236,
  "\u2581state": 2237,
  "\u2581soon": 2238,
  "\u2581\u0645\u062c\u0645\u0648\u0639": 2239,
  "\u2581enable": 2240,
  "\u2581\u0628\u0627\u0633\u0645": 2241,
  "\u2581\u0627\u064a": 2242,
  "\u2581overall": 2243,
  "\u2581\u0627\u0644\u0622\u0631\u0627\u0621": 2244,
  "\u2581\u0627\u0644\u0645\u062a\u0627\u062d\u0629": 2245,
  "\u2581\u0627\u0644\u0645\u062a\u0639\u062f\u062f\u0629": 2246,
  "\u2581\u0643\u064a": 2247,
  "\u2581\u0642\u0637\u0627\u0639": 2248,
  "\u2581\u0627\u0644\u0634\u062e\u0635": 2249,
  "\u2581move": 2250,
  "\u2581\u0627\u0644\u0639\u062f\u0644": 2251,
  "\u2581\u0627\u0644\u062a\u0642\u0646\u064a": 2252,
  "\u2581territory": 2253,
  "\u2581items": 2254,
  "\u2581remains": 2255,
  "\u2581crisis": 2256,
  "\u2581\u0648\u064a\u062c\u0628": 2257,
  "\u2581\u0627\u0633\u062a": 2258,
  "\u2581\u0628\u064a\u062f": 2259,
  "\u2581workers": 2260,
  "\u2581\u062e": 2261,
  "\u2581\u0644\u0644\u0623\u0644\u0641\u064a\u0629": 2262,
  "\u2581multilateral": 2263,
  "\u2581\u0627\u0644\u0642\u0648\u0629": 2264,
  "\u2581]": 2265,
  "\u2581\u0627\u0644\u0623\u0641\u0631\u0627\u062f": 2266,
  "\u2581\u0627\u062c\u062a\u0645\u0627\u0639\u0627\u062a": 2267,
  "\u2581benefits": 2268,
  "\u2581presented": 2269,
  "\u2581father": 2270,
  "\u2581conference": 2271,
  "\u2581trying": 2272,
  "\u2581\u0627\u0644\u0627\u0633\u062a\u062b\u0645\u0627\u0631": 2273,
  "\u2581\u0648\u0638\u064a\u0641\u0629": 2274,
  "\u2581\u0634\u0626": 2275,
  "\u2581\u0627\u0644\u0645\u0642\u062a\u0631\u062d\u0629": 2276,
  "\u0648\u064a": 2277,
  "\u2581Europe": 2278,
  "\u2581Sudan": 2279,
  "\u2581detention": 2280,
  "\u2581\u0645\u0624\u062e\u0631\u0627": 2281,
  "\u2581Annex": 2282,
  "\u2581\u0627\u0644\u0639": 2283,
  "\u2581\u0648\u0628\u0639\u062f": 2284,
  "\u2581\u0645\u0645\u0643\u0646": 2285,
  "\u2581team": 2286,
  "\u2581\u0645\u0645\u0627\u0631\u0633\u0629": 2287,
  "\u2581communications": 2288,
  "\u2581provisional": 2289,
  "\u2581Forum": 2290,
  "\u2581value": 2291,
  "\u2581\u062a\u0643\u0646": 2292,
  "\u2581Support": 2293,
  "\u2581lead": 2294,
  "\u25811997": 2295,
  "\u2581\u0646\u0641\u0633\u0647\u0627": 2296,
  "\u2581preparation": 2297,
  "\u2581\u0646\u0647\u062c": 2298,
  "\u2581\u0642\u0644\u062a": 2299,
  "\u2581\u062f\u0631\u0627\u0633\u0629": 2300,
  "\u2581times": 2301,
  "\u2581car": 2302,
  "\u2581\u0627\u0644\u0648\u0627\u0631\u062f": 2303,
  "\u2581\u062a\u0627\u0631\u064a\u062e": 2304,
  "\u2581informal": 2305,
  "\u2581\u0642\u062f\u0631\u0629": 2306,
  "\u2581\u0627\u0644\u0633\u0627\u0628\u0642": 2307,
  "\u2581\u0627\u0644\u0625\u0637\u0627\u0631": 2308,
  "\u2581outside": 2309,
  "\u2581purposes": 2310,
  "\u2581\u0627\u0644\u062c\u0646\u0633\u064a": 2311,
  "\u2581media": 2312,
  "\u2581\u0648\u0639\u062f\u0645": 2313,
  "\u2581head": 2314,
  "\u2581\u0627\u0644\u0648\u0636\u0639": 2315,
  "\u2581outcome": 2316,
  "\u2581\u0642\u0631\u0627\u0631\u0647\u0627": 2317,
  "\u2581\u0627\u0644\u0641\u0631\u0639\u064a": 2318,
  "AIDS": 2319,
  "\u2581Because": 2320,
  "\u2581\u0644\u062f\u0639\u0645": 2321,
  "\u2581UNCTAD": 2322,
  "\u2581participate": 2323,
  "\u2581\u062a\u0634\u062c\u064a\u0639": 2324,
  "\u2581\u0627\u0644\u062d\u0627\u0644\u064a": 2325,
  "\u0648\u0644": 2326,
  "\u2581\u0646\u0634\u0631": 2327,
  "\u2581Of": 2328,
  "\u2581\u0627\u0644\u0623\u0633\u0631\u0629": 2329,
  "\u2581sessions": 2330,
  "\u2581integrated": 2331,
  "\u2581\u0641\u0639\u0627\u0644\u0629": 2332,
  "\u2581identified": 2333,
  "\u2581substantive": 2334,
  "\u2581\u062a\u0623\u0643\u064a\u062f": 2335,
  "\u2581either": 2336,
  "\u2581\u0647\u0627": 2337,
  "\u2581claims": 2338,
  "\u2581bad": 2339,
  "\u2581\u0627\u0644\u0645\u0642\u062f\u0645": 2340,
  "\u2581\u0627\u0644\u0645\u062c\u0627\u0644\u0627\u062a": 2341,
  "\u0628\u0631": 2342,
  "\u2581\u0642\u0627\u0645\u062a": 2343,
  "\u2581positive": 2344,
  "\u2581\u0664": 2345,
  "\u2581\u0642\u0648\u0629": 2346,
  "org": 2347,
  "\u258145": 2348,
  "\u2581officers": 2349,
  "\u0648\u0647": 2350,
  "en": 2351,
  "\u2581institutional": 2352,
  "\u2581conducted": 2353,
  "\u2581\u0627\u0644\u0645\u0633\u0624\u0648\u0644\u064a\u0629": 2354,
  "\u2581Uh": 2355,
  "\u2581views": 2356,
  "\u2581\u0627\u0644\u0646\u0648\u0648\u064a": 2357,
  "\u0633\u062a": 2358,
  "\u2581medical": 2359,
  "\u2581Unit": 2360,
  "\u2581Since": 2361,
  "\u2581uh": 2362,
  "\u2581\u0627\u0644\u0645\u0627\u0644": 2363,
  "\u2581fine": 2364,
  "\u2581\u0645\u0630\u0643\u0631\u0629": 2365,
  "\u2581\u0645\u0646\u0647\u0645": 2366,
  "\u2581\u0627\u0644\u0633\u0648\u062f\u0627\u0646": 2367,
  "\u2581First": 2368,
  "\u2581\u0627\u0644\u062c\u0631\u0627\u0626\u0645": 2369,
  "\u2581\u0627\u0644\u062c\u0645\u064a\u0639": 2370,
  "\u2581share": 2371,
  "\u0648\u0633": 2372,
  "\u2581Section": 2373,
  "\u2581entities": 2374,
  "\u258134": 2375,
  "an": 2376,
  "\u2581\u0634\u0628\u0643\u0629": 2377,
  "\u2581\u0648\u0644\u0644": 2378,
  "\u2581\u062a\u0648\u062c\u062f": 2379,
  "\u2581\u0627\u0644\u0642\u062f\u0631\u0629": 2380,
  "\u2581\u0627\u0646\u062a\u0634\u0627\u0631": 2381,
  "\u2581Crime": 2382,
  "\u2581compliance": 2383,
  "\u2581\u0628\u0627": 2384,
  "\u2581\u0648\u0628\u0631\u0646\u0627\u0645\u062c": 2385,
  "\u2581talking": 2386,
  "\u2581\u0623\u0646\u062d\u0627\u0621": 2387,
  "year": 2388,
  "\u2581\u0644\u062a\u0642\u062f\u064a\u0645": 2389,
  "\u2581\u0628\u0637\u0631\u064a\u0642\u0629": 2390,
  "\u2581Congo": 2391,
  "\u2581direct": 2392,
  "\u2581big": 2393,
  "\u2581low": 2394,
  "\u2581achieved": 2395,
  "\u2581\u0642\u0636\u0627\u064a\u0627": 2396,
  "\u25811996": 2397,
  "\u2581paragraphs": 2398,
  "\u2581\u0623\u0648\u0644": 2399,
  "\u2581\u0648\u0641\u062f": 2400,
  "\u25811994": 2401,
  "\u258132": 2402,
  "\u2581\u0623\u0635\u062d\u0627\u0628": 2403,
  "\u2581\u0627\u0644\u0645\u0646\u0627\u0633\u0628": 2404,
  "\u2581\u0627\u0644\u0625\u0639\u0644\u0627\u0646": 2405,
  "\u2581ask": 2406,
  "\u2581using": 2407,
  "\u2581killed": 2408,
  "\u2581\u0622\u0644\u064a\u0629": 2409,
  "\u2581dead": 2410,
  "related": 2411,
  "\u2581\u0627\u0644\u0641\u0644\u0633\u0637\u064a\u0646\u064a\u0629": 2412,
  "\u2581mother": 2413,
  "\u2581\u0645\u0639\u064a\u0646\u0629": 2414,
  "\u2581\u0642\u064a\u062f": 2415,
  "\u2581\u0645\u0639\u0627": 2416,
  "\u2581internal": 2417,
  "\u2581\u0645\u0646\u0627\u0637\u0642": 2418,
  "\u2581\u0627\u0644\u0638\u0631\u0648\u0641": 2419,
  "\u2581someone": 2420,
  "\u2581\u0627\u0644\u0623\u0642\u0644": 2421,
  "\u2581\u0645\u0648\u062c\u0647\u0629": 2422,
  "\u258148": 2423,
  "\u0644\u0645": 2424,
  "\u258136": 2425,
  "\u25816.": 2426,
  "\u2581\u0627\u0644\u0637\u0631\u064a\u0642": 2427,
  "\u2581\u0627\u0644\u062a\u0639\u0630\u064a\u0628": 2428,
  "\u2581\u0627\u0644\u0631\u0626\u064a\u0633\u064a": 2429,
  "\u2581kill": 2430,
  "\u258133": 2431,
  "\u2581UNICEF": 2432,
  "\u2581went": 2433,
  "\u2581\u062f\u0648\u0631\u0629": 2434,
  "\u2581\u0645\u0648\u0636\u0648\u0639": 2435,
  "\u2581\u0623\u0648\u0647": 2436,
  "\u2581\u0648\u0645\u0646\u0638\u0645\u0629": 2437,
  "\u2581resource": 2438,
  "\u2581indicated": 2439,
  "\u2581\u0627\u0644\u0625\u0646\u0633\u0627\u0646\u064a": 2440,
  "\u2581circumstances": 2441,
  "\u2581\u0641\u0625\u0646\u0647": 2442,
  "ic": 2443,
  "ation": 2444,
  "able": 2445,
  "\u2581\u062a\u0646\u0638\u0631": 2446,
  "\u2581\u0627\u0644\u0628\u0627\u0628": 2447,
  "\u0627\u0647": 2448,
  "\u2581\u0642\u0636\u064a\u0629": 2449,
  "\u2581\u0627\u0644\u0631\u0648\u0633\u064a": 2450,
  "\u2581\u0671\u0644": 2451,
  "\u2581\u0636\u0648\u0621": 2452,
  ".7": 2453,
  "\u2581\u0627\u0633\u062a\u0645\u0631\u0627\u0631": 2454,
  "\u2581woman": 2455,
  "\u2581fight": 2456,
  "\u2581\u0627\u0644\u062d\u0648\u0627\u0631": 2457,
  "\u2581hold": 2458,
  "\u2581\u0623\u0628\u062f\u0627": 2459,
  "\u2581itself": 2460,
  "\u2581\u0627\u0644\u062a\u0648\u0635\u0644": 2461,
  "\u2581\u0645\u0632\u064a\u062f": 2462,
  "\u2581\u0627\u0644\u0645\u0639\u0627\u0647\u062f\u0629": 2463,
  "\u2581\u0645\u0639\u062f\u0644": 2464,
  "\u2581\u064a\u0634\u0645\u0644": 2465,
  "\u2581material": 2466,
  "\u2581reduce": 2467,
  "\u2581safety": 2468,
  "\u2581\u0627\u0644\u0645\u062f\u0646\u064a\u064a\u0646": 2469,
  "\u2581\u0627\u0644\u0648\u0643\u0627\u0644\u0629": 2470,
  "\u2581primary": 2471,
  "\u2581\u0631\u0627\u0626\u0639": 2472,
  "\u2581integration": 2473,
  "\u2581\u0627\u0644\u0645\u062c\u0645\u0648\u0639\u0629": 2474,
  "\u2581N": 2475,
  "\u2581ways": 2476,
  "\u2581judicial": 2477,
  "\u2581looking": 2478,
  "\u2581Maybe": 2479,
  "\u2581\u062a\u0624\u0643\u062f": 2480,
  "\u2581e": 2481,
  "\u2581calls": 2482,
  "\u2581\u062f\u064a": 2483,
  "\u258137": 2484,
  "\u2581\u0623\u0647\u062f\u0627\u0641": 2485,
  "\u2581ongoing": 2486,
  "\u2581Protection": 2487,
  "\u2581\u062c\u064a\u0645": 2488,
  "\u2581\u0622\u0644\u064a\u0627\u062a": 2489,
  "\u2581Public": 2490,
  "\u2581\u062a\u0648\u0627\u0641\u0642": 2491,
  "\u2581\u0627\u0644\u0634": 2492,
  "\u2581Regional": 2493,
  "(\u060c": 2494,
  "\u2581\u0645\u0634\u0627\u0648\u0631\u0627\u062a": 2495,
  "\u2581idea": 2496,
  "\u062f\u0627": 2497,
  "\u2581\u0627\u0644\u0645\u0645\u0644\u0643\u0629": 2498,
  "\u2581()": 2499,
  "\u2581\u0634": 2500,
  "\u2581\u0648\u0628\u062e\u0627\u0635\u0629": 2501,
  "\u2581\u0628\u062d\u0642": 2502,
  "\u2581\u0627\u0644\u062c\u0645\u0647\u0648\u0631\u064a\u0629": 2503,
  "\u2581\u064a\u0639\u0645\u0644": 2504,
  "\u2581else": 2505,
  "\u2581\u0645\u0646\u062d": 2506,
  "\u2581enforcement": 2507,
  "\u2581\u0627\u0644\u062d\u0642\u064a\u0642\u0629": 2508,
  "\u2581infrastructure": 2509,
  "\u2581\u0627\u0644\u0641\u0646\u064a\u0629": 2510,
  "\u2581\u062a\u0646\u0645\u064a\u0629": 2511,
  "\u2581\u0641\u0639\u0627\u0644\u064a\u0629": 2512,
  "\u2581economy": 2513,
  "/2": 2514,
  "\u0632\u064a": 2515,
  "\u2581whose": 2516,
  "\u2581Agency": 2517,
  "\u25812013": 2518,
  "\u2581\u0627\u0644\u0645\u0639\u0646\u0648\u0646": 2519,
  "\u2581objective": 2520,
  "\u2581\u0627\u0644\u062f\u0641\u0627\u0639": 2521,
  "\u2581effort": 2522,
  "\u2581\u0627\u0644\u0628\u062d\u0631\u064a\u0629": 2523,
  "\u2581effectively": 2524,
  "\u2581allow": 2525,
  "\u2581\u0630\u0648\u064a": 2526,
  "\u2581Constitution": 2527,
  "\u2581\u0645\u062c\u0631\u062f": 2528,
  "u": 2529,
  "\u2581\u0648\u062d\u0645\u0627\u064a\u0629": 2530,
  "\u2581\u0623\u0646\u0646\u0627": 2531,
  "\u2581\u0648\u0644\u064a\u0633": 2532,
  "\u2581\u062a\u0639\u0644\u0645": 2533,
  "\u2581\u0627\u0644\u0645\u0642\u0631": 2534,
  "\u2581\u0648\u0643\u0627\u0646\u062a": 2535,
  "\u2581Great": 2536,
  "\u2581Recalling": 2537,
  "\u2581\u0628\u0643\u0644": 2538,
  "\u2581\u0645\u0628\u0627\u062f\u0626": 2539,
  "\u2581\u0642\u0648\u0627\u0639\u062f": 2540,
  "\u2581\u0627\u0644\u062c\u0646\u0633\u064a\u0629": 2541,
  "\u2581\u0648\u0646\u062d\u0646": 2542,
  "\u2581\u0622\u0633\u0641": 2543,
  "\u2581\u0622\u062b\u0627\u0631": 2544,
  "\u0631\u0641": 2545,
  "\u2581situations": 2546,
  "\u2581By": 2547,
  "\u2581\u0646\u0635": 2548,
  "\u2581\u0646\u0638\u0645": 2549,
  "\u2581Japan": 2550,
  "\u2581\u0627\u0644\u062e\u0637\u0629": 2551,
  "\u2581regions": 2552,
  "\u2581Institute": 2553,
  "\u2581ago": 2554,
  "\u2581strong": 2555,
  "\u2581proceedings": 2556,
  "\u2581expert": 2557,
  "\u2581son": 2558,
  "\u2581\u0627\u0644\u0631\u0627\u0628\u0639": 2559,
  "\u2581\u0641\u0627\u0644": 2560,
  "\u2581\u0627\u0644\u0633\u064a\u0627\u0633\u0629": 2561,
  "\u0648\u0631": 2562,
  "\u2581\u0627\u0644\u0634\u0639\u0628": 2563,
  "\u2581\u0645\u0639\u064a": 2564,
  "\u2581revised": 2565,
  "\u2581\u0645\u0639\u0643": 2566,
  "\u2581actually": 2567,
  "\u2581\u0627\u0644\u0623\u0644\u063a\u0627\u0645": 2568,
  "\u2581\u0627\u0644\u0623\u0647\u0645\u064a\u0629": 2569,
  "\u2581administration": 2570,
  "\u2581term": 2571,
  "\u2581\u0628\u064a\u0627\u0646": 2572,
  "\u2581Party": 2573,
  "\u2581\u0627\u0644\u0623\u0645\u0646\u064a\u0629": 2574,
  "\u2581\u062d\u0627\u062c\u0629": 2575,
  "\u2581sir": 2576,
  "\u2581\u0627\u0644\u0623\u062d\u0643\u0627\u0645": 2577,
  "\u2581\u0627\u0644\u0639\u0644\u064a\u0627": 2578,
  "\u2581\u062a\u0648\u0641\u0631": 2579,
  "\u2581families": 2580,
  "\u2581Peace": 2581,
  "\u2581\u0645\u0642\u0627\u0628\u0644": 2582,
  "\u2581combat": 2583,
  "\u2581\u0627\u0644\u062a\u0631\u0643\u064a\u0632": 2584,
  "G": 2585,
  "\u2581getting": 2586,
  "\u2581effects": 2587,
  "\u2581centres": 2588,
  "\u2581sent": 2589,
  "\u2581\u0627\u0644\u0645\u0643\u0627\u0646": 2590,
  "\u2581\u0643\u0641\u0627\u0644\u0629": 2591,
  "\u2581saw": 2592,
  "\u2581themselves": 2593,
  "\u2581\u0648\u0627\u0644\u0639\u0634\u0631\u064a\u0646": 2594,
  "\u2581civilian": 2595,
  "H": 2596,
  "\u2581\u0627\u0644\u0631\u062c\u0627\u0644": 2597,
  "\u258139": 2598,
  "\u2581Political": 2599,
  "\u2581table": 2600,
  "\u2581Such": 2601,
  "\u2581\u0645\u0624\u0631\u062e\u0629": 2602,
  "\u2581\u0644\u0644\u0633\u0643\u0627\u0646": 2603,
  "\u2581governance": 2604,
  "\u2581hell": 2605,
  "\u2581throughout": 2606,
  "\u2581Here": 2607,
  "\u2581\u0627\u0644\u0639\u062f\u0627\u0644\u0629": 2608,
  "\u2581Also": 2609,
  "\u2581\u0627\u0644\u0645\u0624\u062a\u0645\u0631\u0627\u062a": 2610,
  "man": 2611,
  "\u2581\u062c\u0631\u0649": 2612,
  "\u2581\u0646\u0638\u0631\u0627": 2613,
  "\u2581\u0627\u0644\u0623\u0648\u0644\u0648\u064a\u0629": 2614,
  "\u2581\u0625\u0630\u0646": 2615,
  "\u2581\u0644\u0643\u0645": 2616,
  "\u2581\u0641\u0631\u0635\u0629": 2617,
  "\u2581active": 2618,
  "30": 2619,
  "\u2581\u062d\u0644\u0642\u0629": 2620,
  "\u0623\u0646\u0627": 2621,
  "\u2581\u0627\u0644\u062e\u0627\u0631\u062c\u064a": 2622,
  "\u2581\u0627\u0644\u0648\u0638\u0627\u0626\u0641": 2623,
  "\u2581\u062a\u0636\u0637\u0644\u0639": 2624,
  "\u2581\u0627\u0644\u0639\u0646\u0635\u0631\u064a": 2625,
  "\u2581\u062c": 2626,
  "\u2581\u0627\u0644\u0646\u0627\u0631": 2627,
  "\u064a\u0633": 2628,
  "\u2581higher": 2629,
  "\u2581debt": 2630,
  "\u2581stay": 2631,
  "\u2581\u0627\u0644\u062a\u062d\u0642\u064a\u0642": 2632,
  "\u2581\u0623\u0628\u064a": 2633,
  "\u2581\u0627\u0644\u0639\u0627\u0645\u0644\u0629": 2634,
  "\u2581Foreign": 2635,
  "`": 2636,
  "\u2581benefit": 2637,
  "\u2581torture": 2638,
  "\u2581\u0623\u0645\u0631\u064a\u0643\u0627": 2639,
  "F": 2640,
  "\u2581\u0644\u062f\u064a\u0647\u0627": 2641,
  "\u2581\u0665": 2642,
  "\u2581\u0647\u064a\u0626\u0627\u062a": 2643,
  "\u2581Children": 2644,
  "\u2581Force": 2645,
  "\u2581Health": 2646,
  "\u2581\u0627\u0644\u0627\u0642\u062a\u0635\u0627\u062f": 2647,
  "\u2581Afghanistan": 2648,
  "\u2581\u0644\u062d\u0645\u0627\u064a\u0629": 2649,
  "\u2581\u0625\u0635\u0644\u0627\u062d": 2650,
  "\u0648\u0641": 2651,
  "\u2581\u0627\u0644\u0634\u0628\u0627\u0628": 2652,
  "\u2581\u0648\u0627\u0644\u0630\u064a": 2653,
  "\u2581\u0648\u0633\u0648\u0641": 2654,
  "\u2581operation": 2655,
  "\u2581poor": 2656,
  "\u2581\u0625\u064a\u062c\u0627\u062f": 2657,
  "\u2581elements": 2658,
  "\u2581\u0648\u0625\u0630\u0627": 2659,
  "\u2581initiative": 2660,
  "\u2581side": 2661,
  "\u2581reason": 2662,
  "\u2581Canada": 2663,
  "\u2581\u0627\u0644\u0645\u0624\u0642\u062a\u0629": 2664,
  "\u2581\u0648\u0627\u0644\u062a": 2665,
  "\u2581\u0628\u062d\u0644\u0648\u0644": 2666,
  "\u2581K": 2667,
  "\u2581\u0645\u0646\u0638\u0645\u0627\u062a": 2668,
  "\u2581\u0642\u0627\u0639\u062f\u0629": 2669,
  "\u2581prior": 2670,
  "\u2581thank": 2671,
  "\u2581improving": 2672,
  "\u25811990": 2673,
  "\u2581\u0628\u064a\u0646\u0647\u0627": 2674,
  "\u2581\u0627\u062d\u062a\u0631\u0627\u0645": 2675,
  "\u2581estimated": 2676,
  "\u2581critical": 2677,
  "\u2581\u0627\u0644\u0647\u0627\u062f\u0626": 2678,
  "\u2581travel": 2679,
  "\u2581\u062f": 2680,
  "8": 2681,
  "\u2581rather": 2682,
  "Rev": 2683,
  "\u2581\u0628\u0648\u0635\u0641\u0647\u0627": 2684,
  "\u2581invited": 2685,
  "\u2581\u0645\u062a\u0627\u0628\u0639\u0629": 2686,
  "\u2581\u0648\u0647\u0630\u0647": 2687,
  "\u2581\u0633\u062a\u0643\u0648\u0646": 2688,
  "\u2581\u0627\u0644\u0627\u0644\u062a\u0632\u0627\u0645\u0627\u062a": 2689,
  "\u2581welcomed": 2690,
  "\u2581\u0627\u0644\u0623\u0648\u0631\u0648\u0628\u064a\u0629": 2691,
  "\u2581Services": 2692,
  "\u2581\u0627\u0644\u062f\u0648\u0644\u064a\u064a\u0646": 2693,
  "7": 2694,
  "\u2581\u0627\u0648": 2695,
  "\u0631\u0627\u062a": 2696,
  "\u2581discussions": 2697,
  "\u2581\u0644\u0644\u0642\u0627\u0646\u0648\u0646": 2698,
  "\u2581\u0648\u0625\u062f\u0627\u0631\u0629": 2699,
  "\u2581\u062c\u0645\u064a\u0639\u0627": 2700,
  "\u2581sources": 2701,
  "\u2581\u062a\u0643\u0646\u0648\u0644\u0648\u062c\u064a\u0627": 2702,
  "\u2581\u0627\u0644\u0623\u0645\u0648\u0631": 2703,
  "\u2581\u0644\u062f\u064a\u0647": 2704,
  ".8": 2705,
  "\u2581\u0639\u0627\u0645\u0627": 2706,
  "\u2581\u0627\u0644\u0637\u0648\u0627\u0631\u0626": 2707,
  "responsibilities": 2708,
  "\u2581Caribbean": 2709,
  "\u2581sub": 2710,
  "\u2581\u0645\u0631\u0627\u0643\u0632": 2711,
  "\u2581\u0638\u0644": 2712,
  "\u2581\u062a\u0642\u0631\u0631": 2713,
  "\u25817.": 2714,
  "\u2581\u0627\u0644\u0627\u0642\u062a\u0636\u0627\u0621": 2715,
  "\u2581\u0648\u0648\u0641\u0642\u0627": 2716,
  "\u2581\u062a\u0644\u0627\u062d\u0638": 2717,
  "\u2581\u0648\u0628\u0627\u0644": 2718,
  "\u2581developments": 2719,
  "\u2581\u0627\u0644\u0642\u0636\u064a\u0629": 2720,
  "\u0628\u0627\u0644\u0625\u0636\u0627\u0641\u0629": 2721,
  "\u2581\u0627\u0644\u0643\u0648\u0627\u0631\u062b": 2722,
  "\u2581\u0643\u0648\u0631\u064a\u0627": 2723,
  "\u2581difficult": 2724,
  "\u2581\u0627\u0644\u0646\u0635": 2725,
  "\u2581debate": 2726,
  "\u2581Environment": 2727,
  "\u2581rates": 2728,
  "\u0627\u0644\u0625\u064a\u062f\u0632": 2729,
  "\u2581require": 2730,
  "\u2581half": 2731,
  "\u0627\u0631": 2732,
  "\u2581\u0627\u0644\u0645\u0646\u0627\u0642\u0634\u0629": 2733,
  "\u2581sectors": 2734,
  "\u2581assets": 2735,
  "\u2581\u0633\u0628\u0644": 2736,
  "\u2581ready": 2737,
  "\u2581priorities": 2738,
  "\u2581\u0628\u062f\u0648\u0631": 2739,
  "\u2581\u0627\u0644\u0645\u0646\u0627\u0633\u0628\u0629": 2740,
  "\u2581trust": 2741,
  "\u2581words": 2742,
  "\u2581\u0648\u0627\u0644\u0627\u062a\u0635\u0627\u0644\u0627\u062a": 2743,
  "\u2581interests": 2744,
  "\u2581\u0627\u0644\u0642": 2745,
  "\u2581appreciation": 2746,
  "\u2581\u0648\u062b\u064a\u0642\u0629": 2747,
  "\u2581Countries": 2748,
  "\u2581\u0642\u064a\u0627\u0645": 2749,
  "\u2581\u0648\u0639\u0644\u0627\u0648\u0629": 2750,
  "\u2581hard": 2751,
  "\u2581\u0627\u0644\u0627\u0644\u062a\u0632\u0627\u0645": 2752,
  "\u2581\u064a\u0624\u062f\u064a": 2753,
  "\u2581abuse": 2754,
  "\u2581guidance": 2755,
  "\u2581\u064a\u0645\u062b\u0644": 2756,
  "\u2581\u0627\u0644\u0645\u0634\u0627\u0643\u0644": 2757,
  "\u2581\u062a\u063a\u064a\u0631": 2758,
  "\u2581\u0623\u062f\u0627\u0621": 2759,
  "\u2581effectiveness": 2760,
  "\u25811993": 2761,
  "\u2581\u0644\u0623\u064a": 2762,
  "\u2581\u0627\u0644\u0625": 2763,
  "\u2581\u0628\u0644\u062f": 2764,
  "\u2581\u0627\u0644\u0645\u062a": 2765,
  "\u2581\u0627\u0644\u0644\u0627\u062a\u064a\u0646\u064a\u0629": 2766,
  "\u2581\u0644\u0623\u0646\u0647": 2767,
  "\u2581Administrative": 2768,
  "-1": 2769,
  "\u2581\u0627\u0644\u0646\u0647\u062c": 2770,
  "()\u060c": 2771,
  "\u2581American": 2772,
  "\u2581\u0627\u0644\u0645\u0627\u0636\u064a\u0629": 2773,
  "\u2581try": 2774,
  "\u2581participants": 2775,
  "\u25810": 2776,
  "\u2581\u062e\u0637\u0637": 2777,
  "\u2581introduced": 2778,
  "\u2581\u0637": 2779,
  "\u2581specialized": 2780,
  "\u2581\u0642\u062f\u0645\u062a": 2781,
  "\u2581\u0648\u0627\u0644\u062b\u0642\u0627\u0641\u064a\u0629": 2782,
  "\u2581remember": 2783,
  "\u2581safe": 2784,
  "\u2581France": 2785,
  "\u2581peaceful": 2786,
  "\u2581\u0627\u0644\u0642\u0648\u0627\u0639\u062f": 2787,
  "\u2581\u0645\u0639\u0627\u064a\u064a\u0631": 2788,
  "\u2581\u0628\u062a": 2789,
  "\u2581\u062a\u0645\u062b\u0644": 2790,
  "\u2581friend": 2791,
  "\u2581\u0644\u0644\u0639\u0645\u0644": 2792,
  "\u2581\u0642\u0648\u0627\u062a": 2793,
  "\u2581\u062a\u0633\u062a\u0637\u064a\u0639": 2794,
  "\u2581\u0634\u0627\u0645\u0644\u0629": 2795,
  "\u2581\u0627\u0644\u0645\u0639\u0627\u0647\u062f\u0627\u062a": 2796,
  "\u2581\u062a\u062a\u062e\u0630": 2797,
  "\u2581maintenance": 2798,
  "\u2581Requests": 2799,
  "\u2581\u0628\u0623\u064a": 2800,
  "\u2581\u0648\u0638\u0627\u0626\u0641": 2801,
  "\u2581\u0643\u0627\u0646\u0648\u0627": 2802,
  "\u2581threat": 2803,
  "\u0645\u0627\u0630\u0627": 2804,
  "\u2581\u062f\u0648\u0631\u062a\u0647": 2805,
  "\u2581Korea": 2806,
  "\u2581regulations": 2807,
  "\u2581comments": 2808,
  "\u2581\u0645\u0628\u0644\u063a": 2809,
  "\u2581\u0623\u062b\u0631": 2810,
  "\u258154": 2811,
  "\u2581range": 2812,
  "\u2581\u0627\u0644\u0635\u064a\u0646": 2813,
  "\u2581wait": 2814,
  "\u2581\u0627\u0644\u0633\u0644\u0645": 2815,
  "\u2581\u0627\u0644\u0641\u0626\u0629": 2816,
  "\u2581continuing": 2817,
  "\u2581\u0627\u0644\u0643\u064a\u0645\u064a\u0627\u0626\u064a\u0629": 2818,
  "\u2581\u0642\u062f\u0631": 2819,
  "\u25812005.": 2820,
  "\u2581\u0627\u062d\u062a\u064a\u0627\u062c\u0627\u062a": 2821,
  "\u2581\u0627\u0644\u062b\u0627\u0645\u0646\u0629": 2822,
  "\u0644\u0629": 2823,
  "\u2581\u0644\u0628\u0631\u0646\u0627\u0645\u062c": 2824,
  "\u2581\u0641\u0626\u0629": 2825,
  "\u2581\u0627\u0644\u0645\u0646\u0635\u0648\u0635": 2826,
  "\u2581\u0645\u0646\u0627\u0642\u0634\u0629": 2827,
  "\u2581achieving": 2828,
  "\u2581continues": 2829,
  "\u2581elections": 2830,
  "\u2581indicators": 2831,
  "\u0627\u0628": 2832,
  "\u2581\u0627\u0644\u0645\u0631\u062d\u0644\u0629": 2833,
  "\u2581universal": 2834,
  "\u2581yeah": 2835,
  "\u2581activity": 2836,
  "\u2581extent": 2837,
  "\u258177": 2838,
  "\u258155": 2839,
  "\u064a\u0644": 2840,
  "\u2581\u0627\u0644\u0648\u062d\u064a\u062f": 2841,
  "\u2581\u0627\u0644\u0623\u062f\u0627\u0621": 2842,
  "\u25811,": 2843,
  "\u2581legislative": 2844,
  "\u2581\u0625\u062f\u0631\u0627\u062c": 2845,
  "\u258138": 2846,
  "\u2581\u0627\u0644\u0641\u0642\u0631\u0627\u062a": 2847,
  "\u2581\u0645\u062c\u062f\u062f\u0627": 2848,
  "\u2581collaboration": 2849,
  "\u2581\u0627\u0644\u0631\u0642\u0627\u0628\u0629": 2850,
  "\u2581\u0648\u0647\u0646\u0627\u0643": 2851,
  "\u2581\u064a\u0645\u0643\u0646\u0646\u0627": 2852,
  "\u2581isn": 2853,
  "\u2581\u0641\u0639\u0644\u062a": 2854,
  "O": 2855,
  "\u2581emergency": 2856,
  "\u2581\u0627\u0644\u062a\u062d\u0636\u064a\u0631\u064a\u0629": 2857,
  "\u25812,": 2858,
  "\u2581\u0648\u0644\u0630\u0644\u0643": 2859,
  "\u2581turn": 2860,
  "\u2581wasn": 2861,
  "\u2581\u0634\u0631\u0643\u0629": 2862,
  "\u2581twenty": 2863,
  "\u2581Room": 2864,
  "\u201c": 2865,
  "\u2581air": 2866,
  "\u2581\u0633\u064a\u062f": 2867,
  "\u0645\u0639\u0627\u0644\u062c\u0629": 2868,
  "\u2581paid": 2869,
  "\u2581alone": 2870,
  "\u2581according": 2871,
  "\u2581co": 2872,
  "\u2581\u0648\u062a\u0645": 2873,
  "\u2581capital": 2874,
  "\u2581\u064a\u0637\u0644\u0628": 2875,
  "\u2581Second": 2876,
  "\u2581\u0644\u0645\u0624\u062a\u0645\u0631": 2877,
  "\u2581read": 2878,
  "\u2581transition": 2879,
  "\u2581plenary": 2880,
  "00": 2881,
  "\u2581Discrimination": 2882,
  "\u2581aid": 2883,
  "\u2581obligation": 2884,
  "\u2581\u062a\u062a\u0636\u0645\u0646": 2885,
  "\u2581scope": 2886,
  "\u2581follows": 2887,
  "\u2581\u0643\u0628\u064a\u0631\u0627": 2888,
  "\u2581Disarmament": 2889,
  "\u258156": 2890,
  "\u2581According": 2891,
  "\u2581India": 2892,
  "\u2581claim": 2893,
  "it": 2894,
  "\u2581\u0627\u0644\u0645\u062e\u0635\u0635\u0629": 2895,
  "\u2581materials": 2896,
  "\u2581\u0627\u0644\u0622\u062b\u0627\u0631": 2897,
  "\u2581\u0642\u0644\u064a\u0644\u0627": 2898,
  "\u0628\u0629": 2899,
  "\u2581\u0627\u0644\u062e": 2900,
  "\u2581true": 2901,
  "\u2581periodic": 2902,
  "\u2581\u0627\u0644\u0627\u0646\u062a\u0634\u0627\u0631": 2903,
  "\u2581create": 2904,
  "\u2581\u0648\u062e\u0627\u0635\u0629": 2905,
  "\u258142": 2906,
  "\u0642\u062a": 2907,
  "\u2581\u062b\u0627\u0646\u064a\u0627": 2908,
  "\u2581\u0637\u0631\u0641": 2909,
  "\u2581run": 2910,
  "\u2581\u0645\u0631\u0641\u0642": 2911,
  "\u2581\u0627\u0644\u0625\u0646\u062a\u0631\u0646\u062a": 2912,
  "\u2581\u0627\u0644\u0633\u0628\u0628": 2913,
  "\u258141": 2914,
  "\u2581\u0645\u0634\u062a\u0631\u0643\u0629": 2915,
  "20": 2916,
  "\u064a\u062a": 2917,
  "\u2581\u0627\u0644\u062a\u0643\u0646\u0648\u0644\u0648\u062c\u064a\u0627": 2918,
  "\u2581relations": 2919,
  "\u2581Civil": 2920,
  "\u2581\u0627\u0644\u0645\u0639\u0627\u0645\u0644\u0629": 2921,
  "\u2581technologies": 2922,
  "\u2581terrorist": 2923,
  "\u2581\u0643\u0627\u0645\u0644": 2924,
  "\u2581\u0627\u0644\u0648\u062d\u062f\u0629": 2925,
  "\u2581Sustainable": 2926,
  "\u2581complete": 2927,
  "\u2581transport": 2928,
  "\u0646\u0629": 2929,
  "p": 2930,
  "\u2581\u0645\u0631\u062d\u0644\u0629": 2931,
  "\u062f\u064a\u0646": 2932,
  "\u2581\u0627\u0644\u0628\u062d\u062b": 2933,
  "\u2581\u062a\u0646\u0635": 2934,
  "\u2581\u0627\u0644\u0631\u064a\u0641\u064a\u0629": 2935,
  "\u2581apply": 2936,
  "\u2581voluntary": 2937,
  "\u2581Headquarters": 2938,
  "\u2581\u062a\u0642\u0631\u064a\u0628\u0627": 2939,
  "\u2581\u0627\u0644\u0634\u0631\u0643\u0627\u062a": 2940,
  "\u2581\u0627\u0644\u0645\u0642\u062a\u0631\u062d": 2941,
  "\u0646\u0639\u0645": 2942,
  "\u2581\u0627\u0644\u0627\u062e\u062a\u064a\u0627\u0631\u064a": 2943,
  "\u2581makes": 2944,
  "\u2581\u0648\u0648\u0636\u0639": 2945,
  "\u2581Draft": 2946,
  "\u258149": 2947,
  "\u2581\u0627\u0644\u062a\u0627\u0633\u0639\u0629": 2948,
  "\u2581\u062d\u062f\u0648\u062f": 2949,
  "\u2581\u0646\u0638\u0631": 2950,
  "\u2581\u0627\u0644\u062a\u062d\u062f\u064a\u0627\u062a": 2951,
  "\u2581\u0627\u0644\u0628\u0639\u062b\u0627\u062a": 2952,
  "\u2581Child": 2953,
  "\u2581\u0639\u0644\u064a\u0647\u0645": 2954,
  "\u258146": 2955,
  "\u2581\u062c\u064a\u062f\u0629": 2956,
  "\u2581UNEP": 2957,
  "\u2581\u0627\u0644\u0645\u062f\u064a\u0631": 2958,
  "\u2581UNHCR": 2959,
  "\u2581paper": 2960,
  "\u2581\u0627\u0644\u0627\u0647\u062a\u0645\u0627\u0645": 2961,
  "\u062a\u0645": 2962,
  "\u2581addressing": 2963,
  "\u2581\u0644\u0644\u0623\u0645\u064a\u0646": 2964,
  "\u2581build": 2965,
  "\u2581displaced": 2966,
  "\u2581\u0628\u062a\u0646\u0641\u064a\u0630": 2967,
  "\u2581associated": 2968,
  "\u2581\u0627\u0644\u0634\u0631\u0642\u064a\u0629": 2969,
  "\u2581lost": 2970,
  "\u2581\u064a\u062a\u0636\u0645\u0646": 2971,
  "\u25818.": 2972,
  "\u2581opinion": 2973,
  "\u2581\u0625\u0644\u064a": 2974,
  "\u2581\u062a\u0648\u0627\u0635\u0644": 2975,
  "\u2581\u0627\u0644\u0633\u064a\u0627\u0642": 2976,
  "\u25812005,": 2977,
  "\u2581\u0623\u0641\u063a\u0627\u0646\u0633\u062a\u0627\u0646": 2978,
  "\u2581\u0627\u0644\u0627\u0633\u062a\u062b\u0646\u0627\u0626\u064a\u0629": 2979,
  "\u2581\u062c\u0644\u0633\u0629": 2980,
  "\u2581\u062a\u0631\u0649": 2981,
  "\u2581delivery": 2982,
  "\u2581\u0648\u0625": 2983,
  "\u2581methods": 2984,
  "\u258144": 2985,
  "\u2581\u0627\u0644\u062a\u0635\u0648\u064a\u062a": 2986,
  "\u2581\u0628\u062f\u0623\u062a": 2987,
  "\u2581\u0628\u062d\u064a\u062b": 2988,
  "\u2581along": 2989,
  "\u2581\u0627\u0644\u0648\u0633\u0637\u0649": 2990,
  "\u2581\u0666": 2991,
  "\u2581\u0643\u062b\u064a\u0631": 2992,
  "\u2581goods": 2993,
  "\u2581\u0627\u0644\u0634\u0631\u0642": 2994,
  "\u2581\u0623\u0633\u0627\u0633\u064a\u0629": 2995,
  "\u2581\u0628\u0627\u0644\u0625\u0636\u0627\u0641\u0629": 2996,
  "\u2581\u0648\u0639\u0646": 2997,
  "\u2581encourage": 2998,
  "\u2581\u0644\u0644\u0645\u0633\u0627\u0639\u062f\u0629": 2999,
  "\u2581identify": 3000,
  "\u2581\u0627\u0644\u0633\u0627\u0645\u064a\u0629": 3001,
  "\u2581\u0627\u0644\u0645\u064a\u062f\u0627\u0646": 3002,
  "\u2581\u062c\u0645\u0639": 3003,
  "\u2581\u0645\u0633\u0624\u0648\u0644\u064a\u0629": 3004,
  "\u2581\u0643\u0627\u0641\u0629": 3005,
  "\u2581\u0645\u0648\u0642\u0639": 3006,
  "\u2581vulnerable": 3007,
  "\u2581step": 3008,
  "\u2581\u0627\u0644\u0633\u0627\u0628\u0639\u0629": 3009,
  "\u2581\u0628\u0627\u0644\u0637\u0628\u0639": 3010,
  "\u2581lives": 3011,
  "\u2581includes": 3012,
  "\u0642\u062f": 3013,
  "\u2581\u0627\u0644\u062a\u0648\u0635\u064a\u0629": 3014,
  "\u2581stakeholders": 3015,
  "\u2581disabilities": 3016,
  "\u2581\u0628\u0627\u0644\u062d\u0642\u0648\u0642": 3017,
  "\u2581\u0628\u0646\u0633\u0628\u0629": 3018,
  "\u2581anti": 3019,
  "\u2581\u0628\u0625": 3020,
  "\u2581yourself": 3021,
  "\u2581\u0644\u0625\u062f\u0627\u0631\u0629": 3022,
  "\u2581\u0642\u062a\u0644": 3023,
  "\u2581stability": 3024,
  "\u2581\u0628\u062d\u0627\u062c\u0629": 3025,
  "\u25811-": 3026,
  "\u0639\u0629": 3027,
  "\u2581late": 3028,
  "\u0641\u062a": 3029,
  "\u2581\u0648\u0628\u0627\u0644\u062a\u0627\u0644\u064a": 3030,
  "\u2581\u062a\u0628\u0627\u062f\u0644": 3031,
  "\u2581investigation": 3032,
  "\u2581religious": 3033,
  "\u2581\u0633\u064a\u0627\u0633\u0629": 3034,
  "\u2581Re": 3035,
  "\u2581Latin": 3036,
  "\u2581\u064a\u0644\u0632\u0645": 3037,
  "\u2581\u0623\u0633\u0627\u0633\u0627": 3038,
  "\u2581saying": 3039,
  "\u2581\u0627\u0644\u0634\u0639\u0628\u064a\u0629": 3040,
  "\u2581\u0627\u0644\u0635\u0627\u062f\u0631": 3041,
  "\u2581\u0627\u0644\u0628": 3042,
  "\u2581directly": 3043,
  "\u2581adopt": 3044,
  "\u2581gave": 3045,
  "\u2581similar": 3046,
  "\u2581language": 3047,
  "\u2581\u0641\u0643\u0631\u0629": 3048,
  "making": 3049,
  "\u2581\u0628\u062a\u0642\u062f\u064a\u0645": 3050,
  "\u2581\u0639\u0645\u0627": 3051,
  "-2": 3052,
  "\u2581establishing": 3053,
  "\u2581\u0627\u0644\u0639\u0642\u062f": 3054,
  "\u2581consensus": 3055,
  "\u2581relation": 3056,
  "\u2581treaties": 3057,
  "\u2581Joint": 3058,
  "\u2581events": 3059,
  "\u2581W": 3060,
  "\u258147": 3061,
  "\u0644\u0642\u062f": 3062,
  "\u2581\u0648\u0627\u0644\u0645\u0624\u0633\u0633\u0627\u062a": 3063,
  "\u2581\u0627\u0644\u062a\u0642\u0644\u064a\u062f\u064a\u0629": 3064,
  "\u2581Goals": 3065,
  "\u2581\u0644\u0644\u0628\u064a\u0626\u0629": 3066,
  "\u2581violation": 3067,
  "\u25812005\u060c": 3068,
  "\u2581\u0642\u0628\u064a\u0644": 3069,
  "\u2581short": 3070,
  "\u0663": 3071,
  "\u2581\u0625\u0636\u0627\u0641\u0629": 3072,
  "\u2581\u0644\u0635\u0627\u0644\u062d": 3073,
  "\u2581balance": 3074,
  "ity": 3075,
  "\u2581schools": 3076,
  "-4": 3077,
  "\u2581\u0627\u0644\u0642\u0631\u0646": 3078,
  "\u2581`": 3079,
  "\u2581\u062a\u062f\u0631\u064a\u0628": 3080,
  "\u2581Mexico": 3081,
  "\u258157": 3082,
  "\u2581record": 3083,
  "\u25812006,": 3084,
  "\u2581\u0627\u0644\u0625\u0639\u0627\u0642\u0629": 3085,
  "\u2581\u0627\u0644\u0623\u0646": 3086,
  "\u064a\u062f": 3087,
  "\u2581destruction": 3088,
  "\u2581Islamic": 3089,
  "\u258151": 3090,
  "\u2581\u0645\u0639\u0647": 3091,
  "\u2581morning": 3092,
  "\u2581reached": 3093,
  "\u2581\u0637\u0644\u0628\u062a": 3094,
  "\u2581\u0627\u0644\u0623\u0645": 3095,
  "\u2581\u0645\u0631": 3096,
  "\u2581West": 3097,
  "\u2581\u0642\u0627\u0644\u062a": 3098,
  "\u2581\u0627\u0644\u0645\u062c\u062a\u0645\u0639\u0627\u062a": 3099,
  "\u2581\u0627\u0644\u0628\u064a\u0627\u0646": 3100,
  "\u2581\u0643\u0627\u0641\u064a\u0629": 3101,
  "\u2581jurisdiction": 3102,
  "\u2581\u0636\u062d\u0627\u064a\u0627": 3103,
  "\u2581knew": 3104,
  "\u2581cover": 3105,
  "\u2581\u0627\u0644\u063a\u0631\u0628\u064a\u0629": 3106,
  "\u25812-": 3107,
  "\u2581\u062d\u0638\u0631": 3108,
  "\u2581\u0627\u0644\u0634\u0645\u0627\u0644\u064a\u0629": 3109,
  "\u2581Furthermore": 3110,
  "\u2581\u0648\u0627\u0644\u062e\u062f\u0645\u0627\u062a": 3111,
  "\u0647\u0630\u0627": 3112,
  "\u0624": 3113,
  "\u2581\u0627\u0644\u0635\u0631\u0627\u0639": 3114,
  "\u2581\u0627\u0644\u0645\u0642\u0628\u0644\u0629": 3115,
  "\u2581\u0645\u0642\u0631": 3116,
  "\u2581\u0627\u0644\u062f\u0631\u0627\u0633\u0629": 3117,
  "\u2581\u0627\u0644\u0623\u0648\u0646\u0643\u062a\u0627\u062f": 3118,
  "\u2581welcome": 3119,
  "\u2581Those": 3120,
  "\u2581led": 3121,
  "\u2581\u0634\u0623\u0646": 3122,
  "\u2581\u062d\u062f\u0648\u062b": 3123,
  "\u2581\u0627\u0644\u0627\u0646\u062a\u062e\u0627\u0628\u0627\u062a": 3124,
  "\u0645\u062a": 3125,
  "\u2581\u0627\u0644\u0645\u0628\u0644\u063a": 3126,
  "\u2581carry": 3127,
  "\u2581counter": 3128,
  "\u2581settlement": 3129,
  "\u2581parts": 3130,
  "\u2581\u0627\u0644\u0633\u0646\u0648\u064a\u0629": 3131,
  "at": 3132,
  "\u2581\u0627\u0644\u0643\u0627\u0631\u064a\u0628\u064a": 3133,
  "\u2581applied": 3134,
  "\u2581\u062a\u0639\u064a\u064a\u0646": 3135,
  "\u2581physical": 3136,
  "\u2581maybe": 3137,
  ".9": 3138,
  "\u2581creation": 3139,
  "\u2581\u0627\u0644\u0628\u062d\u0627\u0631": 3140,
  "\u2581\u0634\u0639\u0628\u0629": 3141,
  "\u2581Or": 3142,
  "\u2581Wait": 3143,
  "\u258143": 3144,
  "\u2581\u0648\u0627\u0644\u0628\u0644\u062f\u0627\u0646": 3145,
  "\u2581Cuba": 3146,
  "\u2581wife": 3147,
  "\u2581ground": 3148,
  "\u2581encouraged": 3149,
  "\u2581mine": 3150,
  "\u2581contract": 3151,
  "\u2581conferences": 3152,
  "\u2581fucking": 3153,
  "9": 3154,
  "\u2581distribution": 3155,
  "R": 3156,
  "\u2581receive": 3157,
  "N": 3158,
  "\u2581\u0628\u062c\u0645\u064a\u0639": 3159,
  "\u2581\u0627\u0644\u0645\u062a\u062e\u0630\u0629": 3160,
  "\u2581\u0623\u062f\u0646\u0627\u0647": 3161,
  "\u2581\u0627\u0644\u0642\u0627\u0626\u0645": 3162,
  "\u2581\u0623\u0646\u0647\u0645": 3163,
  "\u2581\u0627\u0644\u0639\u0636\u0648\u064a\u0629": 3164,
  "\u2581\u0644\u0645\u062c\u0644\u0633": 3165,
  "\u2581\u0639\u0646\u0627\u0635\u0631": 3166,
  "\u2581\u0641\u0648\u0642": 3167,
  "\u2581permanent": 3168,
  "\u2581\u0627\u0644\u0645\u0646\u0634\u0623\u0629": 3169,
  "\u2581sex": 3170,
  "\u2581week": 3171,
  "\u2581\u0648\u062c\u0645\u0647\u0648\u0631\u064a\u0629": 3172,
  "\u258152": 3173,
  "\u2581\u0631\u063a\u0645": 3174,
  "\u2581\u0627\u0644\u062e\u062a\u0627\u0645\u064a\u0629": 3175,
  "\u2581\u0627\u0644\u0627\u0636\u0637\u0644\u0627\u0639": 3176,
  "\u201d,": 3177,
  "\u2581\u0623\u0645\u064a": 3178,
  "\u2581French": 3179,
  "\u2581fund": 3180,
  "\u2581\u0642\u0627\u0626\u0644\u0627": 3181,
  "\u2581\u0641\u0639\u0644\u0627": 3182,
  "\u0643\u0644": 3183,
  "\u2581\u0627\u0644\u0644\u064a\u0644\u0629": 3184,
  "\u2581\u0633\u0648\u0649": 3185,
  "\u2581\u0645\u0642\u062f\u0645\u0629": 3186,
  "\u2581partnership": 3187,
  "\u25812002,": 3188,
  "\u0626": 3189,
  "\u2581\u0637\u0631\u064a\u0642\u0629": 3190,
  "\u2581After": 3191,
  "\u2581\u0645\u0633\u062a\u0648\u064a\u0627\u062a": 3192,
  "\u2581\u0648\u0623\u0636\u0627\u0641": 3193,
  "\u2581\u0642\u0631\u0631\u062a": 3194,
  "\u2581relationship": 3195,
  "\u2581\u0648\u062a\u062d\u0633\u064a\u0646": 3196,
  "\u2581single": 3197,
  "\u25812004,": 3198,
  "\u2581supporting": 3199,
  "\u0642\u0629": 3200,
  "\u2581Iran": 3201,
  "\u2581\u062d\u0631\u064a\u0629": 3202,
  "\u2581\u0648\u0632\u064a\u0627\u062f\u0629": 3203,
  "\u2581serve": 3204,
  "\u2581across": 3205,
  "\u2581\u0643\u0627\u0644": 3206,
  "\u2581improved": 3207,
  "\u0627\u062f": 3208,
  "\u2581\u0627\u0644\u0642\u0637\u0631\u064a\u0629": 3209,
  "\u2581\u0627\u0644\u0622\u062e\u0631\u064a\u0646": 3210,
  "\u2581Education": 3211,
  "50": 3212,
  "\u2581Hello": 3213,
  "\u2581\u0644\u062a\u062d\u0633\u064a\u0646": 3214,
  "\u2581longer": 3215,
  "\u2581\u062a\u0642\u0648\u0644": 3216,
  "\u2581sixty": 3217,
  "\u2581\u062c\u0632\u0621\u0627": 3218,
  "\u2581\u062d\u0635\u0644\u062a": 3219,
  "\u2581Thanks": 3220,
  "\u2581\u062a\u063a\u064a\u064a\u0631": 3221,
  "\u2581\u0648\u0623\u0639\u0631\u0628": 3222,
  "\u2581Our": 3223,
  "\u2581\u0639\u0636\u0648": 3224,
  "\u25812006.": 3225,
  "\u2581\u0627\u0644\u062a\u0635\u062f\u064a": 3226,
  "\u2581\u0627\u0644\u0645\u0635\u0644\u062d\u0629": 3227,
  "\u2581\u062c\u0645\u0644\u0629": 3228,
  "\u2581points": 3229,
  "\u2581consultation": 3230,
  "\u2581\u0647\u0643\u0630\u0627": 3231,
  "\u2581central": 3232,
  "first": 3233,
  "\u2581\u0627\u0644\u0646\u0637\u0627\u0642": 3234,
  "\u2581\u0638\u0631\u0648\u0641": 3235,
  "\u2581conflicts": 3236,
  "\u0627\u0644\u0641\u0642\u0631\u0629": 3237,
  "\u2581\u062a\u0636\u0639": 3238,
  "\u2581?": 3239,
  "\u2581\u0644\u0644\u062a\u0639\u0627\u0648\u0646": 3240,
  "\u2581\u0627\u0644\u0645\u0630\u0643\u0648\u0631\u0629": 3241,
  "\u2581courts": 3242,
  "\u0627\u062d": 3243,
  "\u2581\u0623\u0639\u0644\u0649": 3244,
  "\u2581\u0635\u0646\u0639": 3245,
  "\u2581\u0627\u0644\u062f\u0633\u062a\u0648\u0631": 3246,
  "\u2581known": 3247,
  "\u2581\u0628\u0627\u0644\u062a": 3248,
  "\u2581practical": 3249,
  "\u2581citizens": 3250,
  "\u2581\u0627\u0644\u0645\u0641\u0627\u0648\u0636\u0627\u062a": 3251,
  "\u0648\u0645": 3252,
  "\u258153": 3253,
  "\u25812003,": 3254,
  "ar": 3255,
  "le": 3256,
  "\u2581\u062d\u0633\u0627\u0628": 3257,
  "\u2581signed": 3258,
  "\u2581Prevention": 3259,
  "\u2581compensation": 3260,
  "\u2581\u0644\u0644\u062a": 3261,
  "\u2581seek": 3262,
  "\u2581\u0645\u0628\u062f\u0623": 3263,
  "\u2581applicable": 3264,
  "\u0631\u064a\u062f": 3265,
  "\u2581\u0639\u062f\u064a\u062f\u0629": 3266,
  "\u2581\u0637\u0648\u064a\u0644\u0629": 3267,
  "\u2581\u0628\u0627\u0644\u0645\u0631\u0623\u0629": 3268,
  "\u2581regime": 3269,
  "\u2581\u0623\u0639\u0631\u0628": 3270,
  "\u2581Dr": 3271,
  "The": 3272,
  "\u2581reasons": 3273,
  "\u2581\u0641\u0641\u064a": 3274,
  "\u2581dollars": 3275,
  "\u2581pre": 3276,
  "\u25819.": 3277,
  "\u2581\u0633\u0628\u0628": 3278,
  "\u2581Middle": 3279,
  "\u2581baby": 3280,
  "\u2581Chief": 3281,
  "\u2581\u0628\u0627\u0633\u062a\u062e\u062f\u0627\u0645": 3282,
  "\u2581\u0627\u0644\u0627\u0645\u062a\u062b\u0627\u0644": 3283,
  "\u2581\u0627\u0644\u0627\u0633\u062a\u0642\u0631\u0627\u0631": 3284,
  "\u0623\u062c\u0644": 3285,
  "\u2581\u0627\u0644\u0645\u0634\u0627\u0631": 3286,
  "\u2581\u0627\u0644\u062c\u0646\u0648\u0628": 3287,
  "\u2581\u0628\u0630\u0644": 3288,
  "\u2581\u0642\u062f\u0631\u0627\u062a": 3289,
  "ization": 3290,
  "\u2581\u0627\u0644\u0631": 3291,
  "\u2581\u0625\u0644\u0647\u064a": 3292,
  "\u2581\u0628\u0648\u062c\u0647": 3293,
  "\u2581raised": 3294,
  "\u2581presence": 3295,
  "\u2581\u0628\u0623": 3296,
  "\u2581economies": 3297,
  "\u2581positions": 3298,
  "ment": 3299,
  "\u2581\u0627\u0644\u0628\u0627\u0644\u063a": 3300,
  "\u2581\u0627\u0644\u0623\u062c\u0627\u0646\u0628": 3301,
  "\u2581\u0625\u062d\u062f\u0649": 3302,
  "\u2581\u062c\u064a\u062f\u0627": 3303,
  "\u2581\u0627\u0644\u0645\u062d\u0627\u0643\u0645": 3304,
  "\u2581\u0648\u0627\u0644\u0633\u062a\u064a\u0646": 3305,
  "\u2581Persons": 3306,
  "\u25812007,": 3307,
  "\u2581\u062a\u062f\u0639\u0648": 3308,
  "-3": 3309,
  "\u2581concluded": 3310,
  "\u2581created": 3311,
  "and": 3312,
  "\u2581loss": 3313,
  "\u2581\u062a\u0648\u062c\u064a\u0647": 3314,
  "\u2581almost": 3315,
  "\u2581Vienna": 3316,
  "\u2581\u0643\u0648\u0633\u0648\u0641\u0648": 3317,
  "\u2581(1)": 3318,
  "\u2581\u062a\u0643\u0641\u0644": 3319,
  "\u25812004.": 3320,
  "\u2581implications": 3321,
  "\u2581Germany": 3322,
  "\u2581states": 3323,
  "\u2581Optional": 3324,
  "\u2581\u0623\u0635\u0628\u062d\u062a": 3325,
  "\u2581\u0627\u0633\u062a\u0646\u0627\u062f\u0627": 3326,
  "\u2581\u0661\u0669\u0669\u0664": 3327,
  "\u2581structure": 3328,
  "\u2581\u062a\u064a\u0633\u064a\u0631": 3329,
  "\u2581parents": 3330,
  "\u2581\u0623\u0634\u0647\u0631": 3331,
  "\u2581\u0648\u0627\u0644\u0627\u0642\u062a\u0635\u0627\u062f\u064a\u0629": 3332,
  "\u2581beyond": 3333,
  "\u2581Syrian": 3334,
  "\u2581nice": 3335,
  "\u2581\u0627\u0644\u062f\u0631\u0627\u0633\u064a\u0629": 3336,
  "\u2581products": 3337,
  "\u2581clearly": 3338,
  "\u2581Table": 3339,
  "\u2581\u0648\u0632\u064a\u0631": 3340,
  "\u25812006\u060c": 3341,
  "\u2581Although": 3342,
  "\u2581#": 3343,
  "\u2581Elimination": 3344,
  "\u2581\u0627\u0644\u0623\u0648\u0633\u0637": 3345,
  "\u2581\u0623\u0635\u0628\u062d": 3346,
  "\u2581initial": 3347,
  "\u2581\u061b": 3348,
  "\u2581\u0627\u0644\u0639\u0644\u0627\u0642\u0627\u062a": 3349,
  "\u2581\u062a\u0631\u062d\u0628": 3350,
  "\u2581\u0627\u0644\u0639\u0627\u0645\u0644\u064a\u0646": 3351,
  "\u2581\u062c\u0632\u0621": 3352,
  "\u2581respective": 3353,
  "\u2581\u0645\u062a\u0649": 3354,
  "\u2581\u062a\u062d\u0644\u064a\u0644": 3355,
  "\u2581Coordination": 3356,
  "\u2581\u0627\u0639\u062a\u0645\u062f\u062a": 3357,
  "\u062d\u0633\u0646\u0627": 3358,
  "\u2581\u0648\u062a\u0648\u0641\u064a\u0631": 3359,
  "\u2581reflected": 3360,
  "\u2581Ireland": 3361,
  "\u2581\u0628\u0631\u0648\u062a\u0648\u0643\u0648\u0644": 3362,
  "\u2581\u0648\u0627\u0633\u0639": 3363,
  "\u2581\u0627\u0644\u0630\u0627\u062a\u064a": 3364,
  "\u2581\u064a\u0642\u0648\u0644": 3365,
  "\u25812008.": 3366,
  "\u2581covered": 3367,
  "\u2581judges": 3368,
  "\u2581consistent": 3369,
  "\u2581\u0627\u0644\u0637\u0631\u064a\u0642\u0629": 3370,
  "\u2581\u064a\u0634\u064a\u0631": 3371,
  "\u2581\u0648\u0627\u0644\u0623": 3372,
  "\u2581\u0627\u0644\u062a\u062e\u0637\u064a\u0637": 3373,
  "\u2581\u0627\u0644\u0636\u0631\u0648\u0631\u064a": 3374,
  "\u2581\u0627\u0633\u062a\u0639\u0645\u0627\u0644": 3375,
  "\u0645\u0627\u0646": 3376,
  "\u2581\u0627\u0644\u0641\u0644\u0633\u0637\u064a\u0646\u064a": 3377,
  "\u2581shit": 3378,
  "\u0639\u064a": 3379,
  "\u2581\u0627\u0644\u0645\u064a\u062f\u0627\u0646\u064a\u0629": 3380,
  "\u2581task": 3381,
  "\u2581factors": 3382,
  "\u2581achievement": 3383,
  "\u2581\u062a\u0624\u062f\u064a": 3384,
  "\u2581\u0623\u0638\u0646": 3385,
  "\u2581leaders": 3386,
  "\u2581bilateral": 3387,
  "\u0623\u0646": 3388,
  "\u2581personal": 3389,
  "\u2581majority": 3390,
  "\u2581\u0627\u0644\u0645\u0648\u0642\u0639": 3391,
  "\u064a\u0641": 3392,
  "\u25812008,": 3393,
  "\u2581Lebanon": 3394,
  "\u2581\u0635\u0644\u0629": 3395,
  "\u2581\u0627\u0644\u0645\u0633\u0624\u0648\u0644\u064a\u0646": 3396,
  "\u2581\u0627\u0644\u0644\u062c\u0648\u0621": 3397,
  "\u2581Pacific": 3398,
  "\u2581\u0628\u0648\u0636\u0639": 3399,
  "\u2581word": 3400,
  "\u2581\u0641\u0647\u0645": 3401,
  "\u2581\u0647\u0627\u0645\u0629": 3402,
  "\u2581\u0642\u064a\u0645\u0629": 3403,
  "\u25812007.": 3404,
  "\u2581\u062a\u0639\u062a\u0628\u0631": 3405,
  "\u2581actors": 3406,
  "\u2581\u0627\u0644\u0645\u062e\u0627\u0637\u0631": 3407,
  "\u2581\u062a\u0648\u0633\u064a\u0639": 3408,
  "\u2581\u0627\u0644\u063a\u0631\u0636": 3409,
  "\u2581advice": 3410,
  "\u2581successful": 3411,
  "\u2581\u0627\u0644\u0633\u0646\u0648\u064a": 3412,
  "\u2581\u0645\u0646\u0643": 3413,
  "10": 3414,
  "is": 3415,
  "SR": 3416,
  "\u2581\u0667": 3417,
  "\u2581\u0627\u0644\u0645\u0646\u0632\u0644": 3418,
  "\u2581maintain": 3419,
  "\u25812000,": 3420,
  "\u2581\u0627\u0644\u0633\u0644\u0639": 3421,
  "\u2581\u0627\u0646\u062a\u0647\u0627\u0643\u0627\u062a": 3422,
  "\u2581\u0627\u0644\u0642\u0637\u0631\u064a": 3423,
  "\u2581standard": 3424,
  "\u2581\u0643\u0646\u0627": 3425,
  "\u2581\u0627\u0644\u0625\u0634\u0627\u0631\u0629": 3426,
  "\u2581takes": 3427,
  "\u2581\u0648\u0642\u0641": 3428,
  "\u2581\u0627\u0644\u0645\u062f\u0627\u0631\u0633": 3429,
  "\u2581illegal": 3430,
  "\u2581\u0648\u0627\u0644\u0623\u0637\u0641\u0627\u0644": 3431,
  "\u2581sound": 3432,
  "\u0648\u0642": 3433,
  "\u2581illicit": 3434,
  "\u2581\u0628\u0627\u0644\u062a\u0623\u0643\u064a\u062f": 3435,
  "\u2581completed": 3436,
  "\u25812001,": 3437,
  "\u2581IV": 3438,
  "\u2581\u0645\u064a\u062f\u0627\u0646": 3439,
  "\u2581recently": 3440,
  "\u2581consequences": 3441,
  "\u2581\u0627\u0644\u0645\u0634\u0648\u0631\u0629": 3442,
  "\u2581\u0644\u0644\u0645\u062c\u0644\u0633": 3443,
  "40": 3444,
  "\u2581requires": 3445,
  "\u2581though": 3446,
  "\u2581\u0639\u0645\u0644\u0647\u0627": 3447,
  "\u2581\u0623\u062f\u0644\u0649": 3448,
  "\u2581\u0645\u0648\u0639\u062f": 3449,
  "\u25812003.": 3450,
  "\u2581\u0637\u0648\u0627\u0644": 3451,
  "\u2581\u062a\u062d\u062a\u0627\u062c": 3452,
  "\u2581solution": 3453,
  "\u2581\u062a\u0639\u062f\u064a\u0644": 3454,
  "\u2581efficiency": 3455,
  "\u2581\u0625\u0646\u062a\u0627\u062c": 3456,
  "\u2581\u0645\u0647\u0645\u0629": 3457,
  "\u2581everyone": 3458,
  "\u2581\u0627\u0644\u0645\u0647\u0645": 3459,
  "\u2581\u0627\u0644\u0645\u062a\u0648\u0642\u0639": 3460,
  "\u2581Territory": 3461,
  "\u2581\u0627\u0644\u0641\u0631\u0639": 3462,
  "\u2581\u0648\u0627\u0633\u062a": 3463,
  "\u2581submission": 3464,
  "\u2581\u0623\u064a\u0627\u0645": 3465,
  "\u2581visit": 3466,
  "\u2581Administration": 3467,
  "\u2581wanna": 3468,
  "\u25812004\u060c": 3469,
  "\u2581\u0642\u0633\u0645": 3470,
  "\u2581\u0639\u0644\u0645": 3471,
  "\u2581\u0628\u0646": 3472,
  "\u0631\u064a": 3473,
  "\u2581\u0627\u0644\u0631\u0633\u0627\u0644\u0629": 3474,
  "\u0628\u0648": 3475,
  "\u2581\u0648\u0623\u0634\u0627\u0631": 3476,
  "\u2581suggested": 3477,
  "\u2581heart": 3478,
  "\u2581\u0648\u0642": 3479,
  "\u2581goal": 3480,
  "Governing": 3481,
  "K": 3482,
  "\u258158": 3483,
  "\u2581\u0627\u0644\u0634\u064a\u0621": 3484,
  "\u2581\u0661\u0669": 3485,
  "\u2581\u0639\u062f\u062f\u0627": 3486,
  "\u2581\u0627\u0644\u062f\u062e\u0644": 3487,
  "\u2581detailed": 3488,
  "\u2581\u0627\u0644\u0627\u062a\u062d\u0627\u062f\u064a\u0629": 3489,
  "\u2581Item": 3490,
  "\u2581external": 3491,
  "\u2581\u0648\u062d\u0642\u0648\u0642": 3492,
  "\u2581\u0627\u0644\u0646\u0641\u0642\u0627\u062a": 3493,
  "\u2581Federal": 3494,
  "\u2581\u0627\u0644\u0623\u063a\u0630\u064a\u0629": 3495,
  "\u2581housing": 3496,
  "\u2581gotta": 3497,
  "\u2581challenge": 3498,
  "\u2581mentioned": 3499,
  "\u2581\u062f\u0641\u0639": 3500,
  "\u2581boy": 3501,
  "\u0648\u0628": 3502,
  "\u2581rest": 3503,
  "\u2581\u0627\u0644\u0645\u062d\u064a\u0637": 3504,
  "\u2581although": 3505,
  "\u2581\u0642\u0627\u0646\u0648\u0646\u064a\u0629": 3506,
  "\u2581Add": 3507,
  "\u2581\u0635\u064a\u0627\u063a\u0629": 3508,
  "\u2581\u0627\u0644\u0648\u0632\u0631\u0627\u0621": 3509,
  "\u2581200": 3510,
  "\u2581stage": 3511,
  "\u2581event": 3512,
  "\u2581\u0641\u064a\u064a\u0646\u0627": 3513,
  "\u2581\u0627\u0644\u0645\u062a\u062e\u0635\u0635\u0629": 3514,
  "\u2581\u0644\u0644\u0645\u0627\u062f\u0629": 3515,
  "\u2581\u0648\u0627\u0644\u0645\u062c\u062a\u0645\u0639": 3516,
  "\u2581\u0627\u0644\u0631\u0635\u062f": 3517,
  "\u2581youth": 3518,
  "\u25812002\u060c": 3519,
  "\u2581\u0627\u0644\u062d\u0627\u0644": 3520,
  "\u258110.": 3521,
  "\u2581wouldn": 3522,
  "\u2581core": 3523,
  "\u2581sanctions": 3524,
  "\u2581\u062d\u064a\u0627\u0629": 3525,
  "\u2581\u0647\u062f\u0641": 3526,
  "\u2581Inter": 3527,
  "\u2581\u0627\u0644\u0645\u0633\u0627\u0647\u0645\u0629": 3528,
  "\u2581\u0627\u0644\u0646\u0638\u0645": 3529,
  "\u2581anyone": 3530,
  "\u2581Nuclear": 3531,
  "\u2581\u0627\u0644\u064a\u0648\u0646\u064a\u0633\u064a\u0641": 3532,
  "us": 3533,
  "\u2581ethnic": 3534,
  "\u2581\u062d\u0643\u0648\u0645\u064a\u0629": 3535,
  "\u2581\u0645\u0634\u0627\u0643\u0644": 3536,
  "\u2581started": 3537,
  "\u2581procurement": 3538,
  "\u2581supply": 3539,
  "\u25812003\u060c": 3540,
  "\u2581\u0627\u0644\u0635\u0643\u0648\u0643": 3541,
  "\u2581educational": 3542,
  "\u2581\u0628\u0648\u0635\u0641\u0647": 3543,
  "\u2581\u0648\u0643\u0645\u0627": 3544,
  "\u258170": 3545,
  "\u2581\u0645\u0645\u062b\u0644\u064a": 3546,
  "\u2581\u0627\u0644\u0645\u0628\u0627\u062f\u0631\u0627\u062a": 3547,
  "\u2581duty": 3548,
  "\u2581Guinea": 3549,
  "\u2581\u0645\u0631\u0627\u062c\u0639\u0629": 3550,
  "\u2581\u0645\u062f\u064a\u0631": 3551,
  "\u25812002.": 3552,
  "\u2581Have": 3553,
  "\u2581\u0625\u0635\u062f\u0627\u0631": 3554,
  "\u2581expenditure": 3555,
  "\u2581\u0642\u062f\u0631\u0647": 3556,
  "\u2581\u064a\u0639\u062f": 3557,
  "\u2581prison": 3558,
  "\u2581guess": 3559,
  "\u2581\u0627\u0644\u0647\u062c\u0631\u0629": 3560,
  "\u25812007\u060c": 3561,
  "\u2581\u0648\u0633\u0627\u0626\u0644": 3562,
  "\u2581\u0627\u0644\u0648\u0644\u0627\u064a\u0629": 3563,
  "\u2581cause": 3564,
  "\u2581\u062a\u0639\u062f": 3565,
  "\u2581\u0627\u0644\u0645\u0647\u0627\u062c\u0631\u064a\u0646": 3566,
  "\u0627\u0642": 3567,
  "\u2581\u0644\u0625": 3568,
  "\u2581\u0627\u0644\u0625\u0633\u0644\u0627\u0645\u064a\u0629": 3569,
  "em": 3570,
  "\u2581approaches": 3571,
  "\u2581discussed": 3572,
  "\u2581instrument": 3573,
  "\u2581\u062a\u0648\u0642\u0641": 3574,
  "\u2581remained": 3575,
  "\u2581\u0627\u0647\u062a\u0645\u0627\u0645": 3576,
  "\u2581\u0628\u0627\u0644\u0627\u0646\u0643\u0644\u064a\u0632\u064a\u0629": 3577,
  "\u2581designed": 3578,
  "\u2581friends": 3579,
  "\u2581\u062c\u0632\u0631": 3580,
  "\u2581beginning": 3581,
  "\u2581Australia": 3582,
  "\u2581leadership": 3583,
  "\u2581\u0634\u0627\u0645\u0644": 3584,
  "\u2581\u0645\u0635\u0627\u062f\u0631": 3585,
  "\u2581\u064a\u0646\u0635": 3586,
  "\u2581female": 3587,
  "\u2581\u0627\u0644\u0645\u062d\u062a\u0644\u0629": 3588,
  "\u2581sufficient": 3589,
  "\u2581Take": 3590,
  "\u2581\u062e\u0645\u0633": 3591,
  "\u2581\u0627\u0644\u0645\u0645\u0643\u0646": 3592,
  "\u2581\u0627\u0644\u0645\u0634\u0643\u0644\u0629": 3593,
  "\u2581\u064a\u0648\u0645\u0627": 3594,
  "\u0625": 3595,
  "\u0625\u0646": 3596,
  "\u2581\u0648\u0623\u0646\u0647": 3597,
  "\u2581temporary": 3598,
  "\u2581\u0628\u062f\u0621": 3599,
  "\u2581\u0627\u0644\u0635\u0627\u062f\u0631\u0629": 3600,
  "\u2581\u0661\u0662": 3601,
  "\u2581says": 3602,
  "\u2581\u0625\u064a\u0631\u0627\u0646": 3603,
  "\u2581\u0628\u0648\u0627\u0633\u0637\u0629": 3604,
  "\u2581\u0628\u062f\u0644\u0627": 3605,
  "\u2581gone": 3606,
  "\u2581studies": 3607,
  "\u2581\u0623\u0648\u062c\u0647": 3608,
  "\u25812008\u060c": 3609,
  "\u2581\u0627\u0644\u062d\u0627\u062f\u064a\u0629": 3610,
  "\u2581\u064a\u0639\u0631\u0641": 3611,
  "\u2581\u0648\u0627\u0644\u0633\u064a\u0627\u0633\u064a\u0629": 3612,
  "\u2581\u0628\u062f\u0623": 3613,
  "\u2581resulting": 3614,
  "\u2581\u0627\u0644\u062f\u064a\u0646": 3615,
  "\u2581\u0627\u0644\u062a\u0632\u0627\u0645": 3616,
  "\u2581English": 3617,
  "\u2581contact": 3618,
  "\u2581\u0627\u0644\u062d": 3619,
  "\u2581\u0627\u0646\u0643": 3620,
  "\u2581exploitation": 3621,
  "\u2581\u0628\u0644\u063a": 3622,
  "\u2581\u062f\u0627\u0644": 3623,
  "\u2581\u064a\u0632\u064a\u062f": 3624,
  "\u2581\u0627\u0644\u0639\u0646\u0627\u0635\u0631": 3625,
  "\u2581phase": 3626,
  "\u2581\u0644\u0644\u0623\u0637\u0641\u0627\u0644": 3627,
  "\u2581\u062a\u0633\u062a\u062e\u062f\u0645": 3628,
  "\u2581\u0627\u0644\u0645\u0643\u0627\u062a\u0628": 3629,
  "\u2581accountability": 3630,
  "\u25813-": 3631,
  "\u2581\u0627\u0644\u0639\u0644\u0645\u064a\u0629": 3632,
  "\u2581brother": 3633,
  "\u2581\u0627\u0644\u0641\u0633\u0627\u062f": 3634,
  "\u2581\u062e\u0637": 3635,
  "\u2581\u0627\u0644\u0630\u0647\u0627\u0628": 3636,
  "\u2581prepare": 3637,
  "\u0627\u0644\u0645\u0627\u062f\u0629": 3638,
  "\u0648\u0639": 3639,
  "\u2581\u0632\u0627\u0644": 3640,
  "\u2581\u0644\u0645\u0646\u0638\u0645\u0629": 3641,
  "\u2581demand": 3642,
  "\u2581\u0648\u0627\u0644\u0645\u0633\u0627\u0639\u062f\u0629": 3643,
  "\u2581honour": 3644,
  "out": 3645,
  "\u2581observations": 3646,
  "\u2581\u0623\u0642\u0648\u0644": 3647,
  "\u2581\u0627\u0644\u064a\u0627\u0628\u0627\u0646": 3648,
  "\u2581source": 3649,
  "\u2581\u0623\u0645\u0627\u0646\u0629": 3650,
  "\u2581\u0627\u0644\u0627\u062a\u0635\u0627\u0644\u0627\u062a": 3651,
  "\u2581Note": 3652,
  "ii": 3653,
  "\u2581\u062a\u0635\u0628\u062d": 3654,
  "\u2581\u062a\u062a": 3655,
  "\u2581\u0648\u0631\u062f": 3656,
  "\u2581\u0645\u0648\u0627\u062f": 3657,
  "\u2581\u0631\u0626\u064a\u0633\u064a\u0629": 3658,
  "\u2581subregional": 3659,
  "\u062a\u0627\u0628\u0639": 3660,
  "\u2581monitor": 3661,
  "\u2581\u0632\u0627\u0644\u062a": 3662,
  "\u2581Legal": 3663,
  "\u2581\u0627\u0644\u0639\u0648\u062f\u0629": 3664,
  "\u2581\u0648\u062e\u0644\u0627\u0644": 3665,
  "\u2581\u062c\u064a": 3666,
  "\u2581\u0623\u062e\u0630": 3667,
  "\u2581\u0628\u0633\u0631\u0639\u0629": 3668,
  "\u2581\u0648\u0627\u0644\u062a\u062f\u0631\u064a\u0628": 3669,
  "\u2581\u0641\u064a\u0631\u0648\u0633": 3670,
  "\u2581\u0627\u0644\u0641\u0631\u0635": 3671,
  "\u2581\u0645\u064a\u062b\u0627\u0642": 3672,
  "\u2581AND": 3673,
  "\u2581civilians": 3674,
  "\u2581\u0668": 3675,
  "\u2581capacities": 3676,
  "\u2581\u062e\u0645\u0633\u0629": 3677,
  "\u2581pretty": 3678,
  "\u258180": 3679,
  "\u2581border": 3680,
  "\u2581reach": 3681,
  "\u2581Brazil": 3682,
  "\u0644\u0648": 3683,
  "\u2581\u0627\u0644\u062b\u0642\u0629": 3684,
  "\u2581\u0648\u0627\u0644\u0647\u0631\u0633\u0643": 3685,
  "15": 3686,
  "\u25811992": 3687,
  "\u2581Members": 3688,
  "\u2581inside": 3689,
  "\u2581\u0627\u0644\u0642\u0627\u0639\u062f\u0629": 3690,
  "\u2581Kosovo": 3691,
  "\u2581fair": 3692,
  "\u2581Letter": 3693,
  "\u2581\u0644\u0648\u0636\u0639": 3694,
  "\u2581\u062a\u0639\u062a\u0642\u062f": 3695,
  "\u2581\u0628\u0647\u0645": 3696,
  "\u2581partnerships": 3697,
  "\u2581\u062d\u0631\u0643\u0629": 3698,
  "\u2581trial": 3699,
  "\u2581Sorry": 3700,
  "\u2581\u0643\u062b\u064a\u0631\u0629": 3701,
  "\u2581Community": 3702,
  "\u2581units": 3703,
  "\u2581independence": 3704,
  "\u2581conclusion": 3705,
  "\u2581\u0623\u0637\u0641\u0627\u0644": 3706,
  "\u2581host": 3707,
  "\u2581average": 3708,
  "\u2581\u0630\u0643\u0631": 3709,
  "0": 3710,
  "\u2581criteria": 3711,
  "\u2581\u062f\u0648\u0644\u0627\u0631\u0627": 3712,
  "\u2581\u0623\u0631\u0628\u0639\u0629": 3713,
  "\u25812014": 3714,
  "\u2581\u0627\u0644\u062a\u062c\u0627\u0631\u064a": 3715,
  "\u2581involving": 3716,
  "\u2581\u0628\u0642\u062f\u0631": 3717,
  "60": 3718,
  "\u2581\u062b\u0627\u0646\u064a\u0629": 3719,
  "\u2581scientific": 3720,
  "\u2581\u062a\u0633\u0648\u064a\u0629": 3721,
  "\u2581\u064a\u062a": 3722,
  "\u2581\u062a\u0628\u062f\u0648": 3723,
  "\u2581success": 3724,
  "\u2581\u0623\u0639\u0646\u064a": 3725,
  "\u2581\u0661\u0661": 3726,
  "\u258190": 3727,
  "\u2581\u0645\u0646\u0627\u0633\u0628\u0629": 3728,
  "\u0665": 3729,
  "\u2581\u0627\u0644\u0645\u062a\u0642\u062f\u0645\u0629": 3730,
  "\u2581\u0644\u0643\u0641\u0627\u0644\u0629": 3731,
  "\u062f\u0631": 3732,
  "\u2581minutes": 3733,
  "\u0633\u0646": 3734,
  "\u2581Moreover": 3735,
  "\u2581\u0648\u062a\u0634\u0645\u0644": 3736,
  "\u2581\u0645\u0639\u062f\u0644\u0627\u062a": 3737,
  "\u2581Bosnia": 3738,
  "\u2581\u0627\u062a\u0641\u0627\u0642\u0627\u062a": 3739,
  "\u2581El": 3740,
  "as": 3741,
  "\u2581Pakistan": 3742,
  "\u2581city": 3743,
  "\u2581urgent": 3744,
  "\u2581mandates": 3745,
  "am": 3746,
  "\u2581Police": 3747,
  "\u2581entire": 3748,
  "\u2581cross": 3749,
  "\u2581\u0625\u062f\u0645\u0627\u062c": 3750,
  "\u25812000.": 3751,
  "14": 3752,
  "\u2581\u064a\u0628\u0644\u063a": 3753,
  "\u2581\u0627\u0644\u0644\u063a\u0627\u062a": 3754,
  "\u0622": 3755,
  "\u2581culture": 3756,
  "\u2581recovery": 3757,
  "\u2581\u0627\u0644\u0647\u0646\u062f": 3758,
  "\u2581welcomes": 3759,
  "\u2581Like": 3760,
  "\u2581\u0644\u0644\u062f\u0648\u0644\u0629": 3761,
  "\u2581entry": 3762,
  "\u2581\u062d\u0643\u0645": 3763,
  "\u064a\u062a\u0647\u0627": 3764,
  "\u2581\u062a\u0648\u0627\u062c\u0647": 3765,
  "19": 3766,
  "\u2581\u062b\u0645\u0629": 3767,
  "\u2581\u0623\u0633\u0644\u062d\u0629": 3768,
  "\u2581thinking": 3769,
  "United": 3770,
  "\u2581appeal": 3771,
  "\u0639\u062a": 3772,
  "\u2581(2)": 3773,
  "\u2581\u062c\u0631\u064a\u0645\u0629": 3774,
  "\u25812001.": 3775,
  "\u2581\u0627\u0644\u062e\u0635\u0648\u0635": 3776,
  "\u2581\u0633\u0643\u0627\u0646": 3777,
  "\u2581\u0627\u0644\u0645\u062f\u0631\u062c\u0629": 3778,
  "\u2581billion": 3779,
  "\u2581mass": 3780,
  "\u2581disaster": 3781,
  "\u2581\u0648\u0644\u0642\u062f": 3782,
  "\u2581traditional": 3783,
  "\u2581Ad": 3784,
  "\u2581\u0661\u0669\u0669\u0665": 3785,
  "\u2581focused": 3786,
  "\u2581\u0648\u0643\u0627\u0644\u0627\u062a": 3787,
  "\u2581\u0646\u0635\u0641": 3788,
  "\u2581urban": 3789,
  "\u2581\u0648\u0627\u0644\u062a\u0643\u0646\u0648\u0644\u0648\u062c\u064a\u0627": 3790,
  "\u2581\u0623\u062d\u0628": 3791,
  "\"\u060c": 3792,
  "\u2581growing": 3793,
  "\u2581\u0627\u0644\u0623\u062d\u062f\u0627\u062b": 3794,
  "\u2581cooperate": 3795,
  "\u2581From": 3796,
  "\u2581\u0644\u0644\u0637\u0627\u0642\u0629": 3797,
  "\u2581movement": 3798,
  "\u2581\u0635": 3799,
  "\u2581\u0648\u0627\u0644\u0645\u064a\u0632\u0627\u0646\u064a\u0629": 3800,
  "\u2581\u0622\u0631\u0627\u0621": 3801,
  "\u2581stressed": 3802,
  "\u2581\u0627\u0644\u0634\u0631\u0627\u0643\u0629": 3803,
  "\u2581\u0627\u0644\u062a\u0637\u0648\u0631\u0627\u062a": 3804,
  "\u2581negative": 3805,
  "\u2581\u0625\u0637\u0644\u0627\u0642": 3806,
  "\u2581\u0648\u0627\u0644\u0628\u0631\u0627\u0645\u062c": 3807,
  "\u25812001\u060c": 3808,
  "\u2581\u0628\u0627\u0644\u063a": 3809,
  "\u2581\u0623\u0631\u062f\u062a": 3810,
  "\u2581\u0648\u062f\u0639\u0645": 3811,
  "\u2581languages": 3812,
  "V": 3813,
  "\u2581\u0639\u0628\u0627\u0631\u0629": 3814,
  "\u2581\u062f\u0644\u064a\u0644": 3815,
  "\u2581\u0623\u0646\u0648\u0627\u0639": 3816,
  "\u2581\u0627\u0644\u0635\u0631\u0627\u0639\u0627\u062a": 3817,
  "\u2581\u0627\u0644\u0636\u062d\u0627\u064a\u0627": 3818,
  "\u2581die": 3819,
  "\u2581J": 3820,
  "\u2581Authority": 3821,
  "\u2581\u0627\u0644\u0645\u0628\u0627\u0634\u0631": 3822,
  "\u2581intended": 3823,
  "\u2581aim": 3824,
  "\u2581Kuwait": 3825,
  "\u2581dealing": 3826,
  "\u25812000\u060c": 3827,
  "\u2581\u0645\u0631\u0627\u0642\u0628\u0629": 3828,
  "\u0640)": 3829,
  "\u2581\u0644\u0628\u0646\u0627\u0646": 3830,
  "\u2581Palestine": 3831,
  "\u0668": 3832,
  "\u2581\u064a\u0639\u062a\u0628\u0631": 3833,
  "\u2581\u062a\u0648\u0635\u064a": 3834,
  "\u0638": 3835,
  "\u2581myself": 3836,
  "\u2581\u0627\u0644\u0645\u0634\u0627\u0648\u0631\u0627\u062a": 3837,
  "\u2581\u062a\u0642\u0631\u064a\u0631\u0647\u0627": 3838,
  "\u2581\u0644\u0644\u062d\u0635\u0648\u0644": 3839,
  "\u2581\u0627\u0644\u0644\u062c\u0627\u0646": 3840,
  "\u0664": 3841,
  "\u2581donors": 3842,
  "\u2581Sierra": 3843,
  "\u2581Operations": 3844,
  "\u2581\u0627\u0644\u0645\u0627\u0646\u062d\u0629": 3845,
  "\u2581\u0646\u0627\u0626\u0628": 3846,
  "\u2581Somalia": 3847,
  "\u2581\u0633\u064a\u0627\u062f\u0629": 3848,
  "[": 3849,
  "\u0627\u062a\u0647\u0627": 3850,
  "\u2581network": 3851,
  "\u2581500": 3852,
  "\u258161": 3853,
  "\u2581\u0623\u0643\u0648\u0646": 3854,
  "\u2581\u0627\u0644\u0623\u0635\u0644\u064a\u064a\u0646": 3855,
  "\u2581Rwanda": 3856,
  "\u2581\u0631\u0623\u064a\u062a": 3857,
  "\u2581\u0628\u0623\u0633": 3858,
  "\u2581timely": 3859,
  "\u2581\u0627\u0644\u0634\u0623\u0646": 3860,
  "\u2581\u0627\u0644\u0645\u0639\u0647\u062f": 3861,
  "\u2581\u0648\u0627\u0644\u0644\u062c\u0646\u0629": 3862,
  "\u2581Ambassador": 3863,
  "\u2581construction": 3864,
  "\u2581\u062a\u0623\u062e\u0630": 3865,
  "\u2581\u0627\u0633\u062a\u0631\u0627\u062a\u064a\u062c\u064a\u0627\u062a": 3866,
  "\u2581UNFPA": 3867,
  "\u2581Fifth": 3868,
  "\u2581\u0645\u0648\u062c\u0632": 3869,
  "\u2581\u0637\u0641\u0644": 3870,
  "\u2581U": 3871,
  "\u2581island": 3872,
  "\u0633\u0648\u0646": 3873,
  "\u2581Third": 3874,
  "\u2581\u0627\u0644\u062d\u0643\u0648\u0645\u064a": 3875,
  "\u2581conclusions": 3876,
  "25": 3877,
  "\u2581statistics": 3878,
  "\u2581truth": 3879,
  "12": 3880,
  "\u2581\u0633\u0645\u0639\u062a": 3881,
  "\u062c\u0631": 3882,
  "\u2581\u062b\u0627\u0644\u062b\u0627": 3883,
  "\u2581\u0643\u0646\u062f\u0627": 3884,
  "\u2581useful": 3885,
  "\u2581transparency": 3886,
  "\u2581\u0627\u0644\u0632\u0631\u0627\u0639\u064a\u0629": 3887,
  "\u2581\u0627\u0644\u0622\u062e\u0631": 3888,
  "\u2581\u0627\u0644\u062f\u0648\u0631\u064a": 3889,
  "\u2581\u0627\u0644\u0623\u062e\u064a\u0631": 3890,
  "\u2581\u0627\u0644\u062f\u0648\u0631": 3891,
  "\u2581occupied": 3892,
  "\u2581\u0627\u0644\u062a\u0634\u0631\u064a\u0639\u0627\u062a": 3893,
  "\u2581freedoms": 3894,
  "\u2581\u0623\u0641\u0639\u0644": 3895,
  "\u2581phone": 3896,
  "\u2581summary": 3897,
  "\u258111.": 3898,
  "\u2581Weapons": 3899,
  "\u2581approval": 3900,
  "\u2581alternative": 3901,
  "\u2581University": 3902,
  "\u2581audit": 3903,
  "\u2581Hi": 3904,
  "\u25811991": 3905,
  "\u2581Further": 3906,
  "\u0627\u0626\u064a": 3907,
  "\u2581\u0627\u0642\u062a\u0631\u0627\u062d": 3908,
  "\u2581\u0630\u0627\u062a\u0647": 3909,
  "\u2581Two": 3910,
  "\u2581\u0634\u0647\u0631": 3911,
  "\u2581\u0627\u0644\u0627\u0646\u062a\u0647\u0627\u0643\u0627\u062a": 3912,
  "\u2581\u0627\u0644\u0637\u0628\u064a\u0629": 3913,
  "\u2581\u0623\u0645\u0646": 3914,
  "\u2581\u0661\u0665": 3915,
  "\u2581\u0627\u0644\u0645\u0634\u0645\u0648\u0644\u0629": 3916,
  "\u2581formal": 3917,
  "\u2581\u0627\u0644\u0645\u0634\u0631\u0648\u0639\u0629": 3918,
  "\u2581involvement": 3919,
  "\u2581\u0645\u0627\u0644\u064a\u0629": 3920,
  "\u2581\u0627\u0644\u062c\u0645\u0627\u0639\u0629": 3921,
  "\u2581wants": 3922,
  "\u2581avoid": 3923,
  "\u2581\u0627\u0644\u0627\u0646\u062a\u0642\u0627\u0644\u064a\u0629": 3924,
  "\u2581\u0627\u0644\u062c\u0646\u0633\u0627\u0646\u064a\u0629": 3925,
  "\u2581\u0627\u0644\u0631\u0633\u0645\u064a": 3926,
  "\u2581\u0644\u062a\u0644\u0643": 3927,
  "45": 3928,
  "\u2581road": 3929,
  "\u2581\u0648\u0627\u0644\u0639\u062f\u0627\u0644\u0629": 3930,
  "\u2581\u0627\u0644\u062a\u0635\u062f\u064a\u0642": 3931,
  "\u2581\u062a\u0648\u0632\u064a\u0639": 3932,
  "\u2581\u0627\u0644\u0644\u0627\u0632\u0645": 3933,
  "\u2581sense": 3934,
  "\u2581\u0669": 3935,
  "\u2581North": 3936,
  "\u2581Rules": 3937,
  "\u2581\u0627\u0644\u0625\u062c\u0645\u0627\u0644\u064a": 3938,
  "\u2581\u0627\u0644\u062e\u0627\u0645\u0633": 3939,
  "\u2581\u0627\u0644\u062a\u0646\u0638\u064a\u0645\u064a\u0629": 3940,
  "x": 3941,
  "\u2581\u0645\u062f\u0629": 3942,
  "\u2581\u0627\u0644\u0646\u0632\u0627\u0639": 3943,
  "\u2581\u0628\u0627\u0644\u0646\u064a\u0627\u0628\u0629": 3944,
  "\u2581\u0627\u0644\u062c\u0627\u0631\u064a\u0629": 3945,
  "\u2581\u062f\u0648\u0644\u064a": 3946,
  "\u2581seven": 3947,
  "\u2581reflect": 3948,
  "\u2581\u0642\u0648\u0627\u0646\u064a\u0646": 3949,
  "\u2581Leone": 3950,
  "\u2581\u0648\u0623\u0646\u062a": 3951,
  "\u2581\u0643\u0648\u0628\u0627": 3952,
  "\u2581broad": 3953,
  "\u2581elected": 3954,
  "\u2581\u0628\u0623\u0646\u0647\u0627": 3955,
  "\u2581\u062a\u062d\u064a\u0637": 3956,
  "\u2581sea": 3957,
  "\u2581\u0627\u0644\u0646\u0647\u0627\u0626\u064a": 3958,
  "\u2581commercial": 3959,
  "\u2581\u0623\u062a": 3960,
  "\u2581deployment": 3961,
  "\u2581\u0661\u0660": 3962,
  "\u2581\u0641\u0625\u0646\u0647\u0627": 3963,
  "\u2581\u0631\u062c\u0627\u0644": 3964,
  "\u2581\u0627\u0644\u0641\u0631\u0635\u0629": 3965,
  "\u2581democratic": 3966,
  "\u2581\u0627\u0644\u0645\u062a\u0645\u062b\u0644": 3967,
  "\u2581\u062a\u0642\u0639": 3968,
  "\u0645\u0633\u0623\u0644\u0629": 3969,
  "\u2581hands": 3970,
  "\u2581\u0625\u064a": 3971,
  "\u2581month": 3972,
  "\u2581forty": 3973,
  "\u2581US": 3974,
  "\u2581\u0627\u0644\u0639\u0645\u0627\u0644": 3975,
  "\u2581caused": 3976,
  "\u2581\u064a\u0631\u064a\u062f": 3977,
  "\u2581\u0627\u0644\u0645\u0633\u062a\u0648\u064a\u0627\u062a": 3978,
  "\u2581respond": 3979,
  "\u2581\u0627\u0644\u0641": 3980,
  "\u2581\u0628\u062e\u0635\u0648\u0635": 3981,
  "el": 3982,
  "\u2581\u0627\u0644\u0646\u0647\u0648\u0636": 3983,
  "\u2581confidence": 3984,
  "\u2581Association": 3985,
  "\u2581haven": 3986,
  "\u2581Financial": 3987,
  "\u2581closely": 3988,
  "\u0645\u062b\u0644": 3989,
  "\u2581Herzegovina": 3990,
  "ch": 3991,
  "\u2581\u062a\u0628\u0644\u063a": 3992,
  "\u2581Labour": 3993,
  "\u2581export": 3994,
  "\u2581followed": 3995,
  "\u0643\u0645\u0627": 3996,
  "\u2581\u0625\u0642\u0644\u064a\u0645\u064a\u0629": 3997,
  "\u2581\u0645\u0628\u0627\u062f\u0631\u0629": 3998,
  "\u2581\u062d\u062f\u0629": 3999,
  "\u25812009.": 4000,
  "\u2581\u0627\u0644\u0635\u0646\u0627\u0639\u064a\u0629": 4001,
  "\u2581\u0645\u062a\u0639\u062f\u062f\u0629": 4002,
  "\u2581offer": 4003,
  "\u2581\u062f\u0642\u064a\u0642\u0629": 4004,
  "\u2581\u0661\u0669\u0669\u0666": 4005,
  "\u2581b": 4006,
  "\u2581possibility": 4007,
  "\u2581speak": 4008,
  "z": 4009,
  "\u2581\u0627\u0644\u0645\u0648\u0636\u0648\u0639\u064a\u0629": 4010,
  "\u2581\u0627\u0644\u0648\u0627\u0636\u062d": 4011,
  "weapon": 4012,
  "\u2581\u0643\u064a\u0641\u064a\u0629": 4013,
  "\u2581improvement": 4014,
  "\u2581absence": 4015,
  "\u062f\u0645": 4016,
  "\u2581\u062d\u0648\u0627\u0644\u064a": 4017,
  "\u2581\u0634\u0631\u0642": 4018,
  "\u2581\u062c\u0631\u0627\u0626\u0645": 4019,
  "\u2581bit": 4020,
  "\u2581\u062a\u0639\u0631\u0636": 4021,
  "\u2581operating": 4022,
  "\u2581company": 4023,
  "\u2581fire": 4024,
  "\u0627\u0626\u0644": 4025,
  "\u2581\u0641\u0644\u0627": 4026,
  "\u062c\u064a": 4027,
  "\u2581\u0627\u0644\u0625\u0636\u0627\u0641\u064a\u0629": 4028,
  "\u2581behind": 4029,
  "\u2581Egypt": 4030,
  "\u2581\u0631\u0623\u064a": 4031,
  "\u258112.": 4032,
  "\u2581\u0648\u062f\u0648\u0646": 4033,
  "80": 4034,
  "\u2581\u0645\u0639\u0647\u0627": 4035,
  "\u2581\u0644\u0644\u0645\u0648\u0638\u0641\u064a\u0646": 4036,
  "\u2581skills": 4037,
  "\u2581racial": 4038,
  "\u2581\u0645\u0641\u0647\u0648\u0645": 4039,
  "\u2581\u0648\u0627\u0644\u0633\u064a\u062f": 4040,
  "\u2581\u064a\u062e\u0635": 4041,
  "\u2581\u064a\u0643\u0641\u064a": 4042,
  "\u2581\u0627\u0644\u0645\u062e\u062a\u0644\u0641\u0629": 4043,
  "\u2581\u062f\u0648\u0644\u064a\u0627": 4044,
  "\u2581\u0644\u0644\u0642\u0636\u0627\u0621": 4045,
  "\u2581\u0627\u0644\u0633\u0641\u0631": 4046,
  "\u2581\u0627\u0644\u0625\u0628\u0644\u0627\u063a": 4047,
  "\u2581\u062f\u0627\u0626\u0631\u0629": 4048,
  "\u2581\u0627\u0644\u0639\u062f\u062f": 4049,
  "\u2581\u0628\u0627\u0644\u0645\u062e\u062f\u0631\u0627\u062a": 4050,
  "\u2581\u0643\u0627\u0645\u0644\u0629": 4051,
  "\u2581\u0627\u0644\u0645\u0648\u062c\u0648\u062f\u0629": 4052,
  "\u2581\u062a\u0634\u062c\u0639": 4053,
  "\u2581\u0648\u0628\u064a\u0646": 4054,
  "\u2581\u0631\u062f": 4055,
  "\u2581attacks": 4056,
  "\u2581\u062c\u0647\u0648\u062f\u0647\u0627": 4057,
  "\u2581\u0627\u0644\u062e\u0637\u0648\u0627\u062a": 4058,
  "\u2581relief": 4059,
  "\u2581target": 4060,
  "\u2581\u0627\u0644\u0645\u0648\u0627\u0641\u0642\u0629": 4061,
  "17": 4062,
  "\u2581\u0639\u0627\u062f\u0629": 4063,
  "\u2581electronic": 4064,
  "\u2581refugee": 4065,
  "\u0643\u0631": 4066,
  "\u2581lower": 4067,
  "\u2581\u0633\u062a\u0629": 4068,
  "\u25813,": 4069,
  "\u064a\u0646\u064a": 4070,
  "\u258165": 4071,
  "\u2581ability": 4072,
  "\u2581\u062c\u0627\u0621": 4073,
  "\u2581assessments": 4074,
  "\u2581\u0639\u0627\u0644\u0645": 4075,
  "\u2581\u0627\u0644\u0623\u0642\u0644\u064a\u0627\u062a": 4076,
  "\u2581\u0648\u0645\u0646\u0637\u0642\u0629": 4077,
  "ist": 4078,
  "\u2581\u062a\u0642\u0631\u064a\u0631\u0647": 4079,
  "\u2581damage": 4080,
  "\u2581Any": 4081,
  "\u2581\u0627\u0644\u0645\u0628\u0630\u0648\u0644\u0629": 4082,
  "\u2581\u062c\u0639\u0644": 4083,
  "\u2581multi": 4084,
  "\u2581net": 4085,
  "\u2581\u0645\u064a\u0632\u0627\u0646\u064a\u0629": 4086,
  "\u2581difficulties": 4087,
  "\u2581\u0627\u0644\u0623\u0648\u0644\u064a\u0629": 4088,
  "\u2581\u0628\u0627\u0628": 4089,
  "\u2581\u0627\u0644\u0635\u062d\u064a": 4090,
  "\u2581\u0644\u062d\u0641\u0638": 4091,
  "13": 4092,
  "\u2581concrete": 4093,
  "\u2581\u0627\u0644\u0632\u0648\u0627\u062c": 4094,
  "\u2581\u0645\u0642\u062f\u0645": 4095,
  "\u2581membership": 4096,
  "\u2581\u0625\u0642\u0631\u0627\u0631": 4097,
  "\u2581probably": 4098,
  "\u2581enhancing": 4099,
  "\u2581\u0645\u0639\u0631\u0641\u0629": 4100,
  "\u2581\u062f\u0648\u0644\u0627\u0631\u0627\u062a": 4101,
  "\u2581Assistance": 4102,
  "\u2581\u0627\u0644\u0635\u0648\u0645\u0627\u0644": 4103,
  "\u0628\u062a": 4104,
  "\u2581\u062a\u0646\u0627\u0648\u0644": 4105,
  "\u2581\u062f\u0648\u0631\u0627\u062a": 4106,
  "\u2581\u0627\u0644\u0645\u0624\u0631\u062e\u0629": 4107,
  "\u2581\u0648\u0627\u0644\u0625\u0642\u0644\u064a\u0645\u064a\u0629": 4108,
  "\u2581Officer": 4109,
  "\u2581occupation": 4110,
  "\u2581measure": 4111,
  "\u2581\u0648\u0627\u0644\u0623\u0631\u0628\u0639\u064a\u0646": 4112,
  "\u2581planned": 4113,
  "\u2581\u0627\u0644\u062c\u0648\u0627\u0646\u0628": 4114,
  "\u2581\u0628\u0644\u062f\u0627": 4115,
  "\u2581\u0623\u0645\u0627\u0643\u0646": 4116,
  "\u2581\u0627\u0639\u062a\u0645\u062f": 4117,
  "\u2581forest": 4118,
  "\u2581_": 4119,
  "\u2581professional": 4120,
  "\u2581\u0645\u0641\u0648\u0636\u064a\u0629": 4121,
  "\u2581\u0639\u0644\u0627\u0642\u0629": 4122,
  "\u2581happy": 4123,
  "\u2581\u0627\u0644\u062a\u0632\u0627\u0645\u0627\u062a": 4124,
  "\u0640(": 4125,
  "\u2581\u0627\u0644\u0645\u0644\u0643\u064a\u0629": 4126,
  "\u2581door": 4127,
  "\u2581expertise": 4128,
  "\u2581\u0648\u062d\u062a\u0649": 4129,
  "\u2581\u0643\u0644\u0645\u0629": 4130,
  "\u2581happen": 4131,
  "\u2581\u0627\u0644\u0645\u0644\u062d\u0642": 4132,
  "\u2581\u0627\u0644\u0648\u0639\u064a": 4133,
  "\u2581\u0645\u0644\u0627\u064a\u064a\u0646": 4134,
  "\u2581\u062c\u0648\u0627\u0646\u0628": 4135,
  "\u2581\u0646\u0638\u0631\u062a": 4136,
  "\u2581\u0648\u0627\u0644\u062a\u0639\u0644\u064a\u0645": 4137,
  "\u2581rehabilitation": 4138,
  "\u2581\u062a\u0639\u0645\u064a\u0645": 4139,
  "\u2581\u0625\u0646\u0641\u0627\u0630": 4140,
  "\u062f\u0627\u0631": 4141,
  "\u2581\u0628\u0644\u0627": 4142,
  "\u2581Turkey": 4143,
  "\u2581\u0627\u0644\u0646\u0627\u0634\u0626\u0629": 4144,
  "\u2581\u062c\u0627\u0645\u0639\u0629": 4145,
  "\u2581conventions": 4146,
  "\u2581immediate": 4147,
  "\u258162": 4148,
  "\u2581Technical": 4149,
  "\u2581\u0627\u0644\u0623\u0633\u0627\u0633": 4150,
  "\u2581\u0627\u0644\u0639\u0646\u0635\u0631\u064a\u0629": 4151,
  "\u2581\u062a\u062d\u0645\u0644": 4152,
  "\u2581cash": 4153,
  "\u2581\u0648\u062c\u062f\u062a": 4154,
  "\u2581\u0627\u0644\u0633\u0644\u0645\u064a\u0629": 4155,
  "\u0623\u0646\u062a": 4156,
  "resolution": 4157,
  "\u2581\u0648\u0627\u0644\u0639\u0645\u0644": 4158,
  "\u2581tools": 4159,
  "\u0627\u0644\u0642\u0631\u0627\u0631": 4160,
  "\u2581\u0627\u0644\u0645\u0646\u0627\u0642\u0634\u0627\u062a": 4161,
  "\u2581written": 4162,
  "\u2581\u0623\u0631\u0628\u0639": 4163,
  "\u0641\u0631": 4164,
  "\u2581\u0628\u0628\u064a\u0627\u0646": 4165,
  "\u2581documentation": 4166,
  "\u2581System": 4167,
  "\u2581\u0627\u0644\u062c\u0645\u0627\u0639\u064a\u0629": 4168,
  "\u2581NGOs": 4169,
  "\u0667": 4170,
  "\u2581undertake": 4171,
  "\u2581\u0627\u0644\u0645\u0633\u062a\u0642\u0644\u0629": 4172,
  "\u2581holding": 4173,
  "\u2581c": 4174,
  "\u2581\u0627\u0644\u062a\u0634\u0631\u064a\u0639\u064a\u0629": 4175,
  "\u2581\u062d\u062c\u0645": 4176,
  "\u0648\u064a\u0629": 4177,
  "\u2581express": 4178,
  "\u2581fuck": 4179,
  "\u0669": 4180,
  "\u2581\u0641\u0631\u0646\u0633\u0627": 4181,
  "\u2581likely": 4182,
  "\u2581\u0627\u0644\u0627\u062a\u0641\u0627\u0642\u0627\u062a": 4183,
  "\u2581committee": 4184,
  "\u2581actively": 4185,
  "\u2581\u0627\u0644\u0644": 4186,
  "\u2581described": 4187,
  "\u2581definition": 4188,
  "\u2581\u0627\u0644\u0648\u0641\u0627\u0621": 4189,
  "\u2581Islands": 4190,
  "\u2581marriage": 4191,
  "\u2581\u0627\u0644\u0623\u0643\u062b\u0631": 4192,
  "\u2581\u0627\u0644\u062a\u0631\u062a\u064a\u0628\u0627\u062a": 4193,
  "\u2581\u062a\u0633\u0627\u0639\u062f": 4194,
  "\u2581Territories": 4195,
  "\u0631\u0627\u0631": 4196,
  "de": 4197,
  "\u2581encourages": 4198,
  "\u2581leading": 4199,
  "\u2581\u0627\u0644\u0623\u0642\u0627\u0644\u064a\u0645": 4200,
  "\u2581\u0634\u062e\u0635\u0627": 4201,
  "\u2581\u0627\u0644\u0646\u0648\u0639": 4202,
  "\u2581concept": 4203,
  "\u2581\u062f\u064a\u0641\u0648\u0627\u0631": 4204,
  "\u2581\u062a\u0648\u0635\u064a\u0629": 4205,
  "\u2581punishment": 4206,
  "\u2581\u0627\u0644\u0625\u0633\u0631\u0627\u0626\u064a\u0644\u064a\u0629": 4207,
  "\u2581\u0627\u0644\u0643\u0628\u0631\u0649": 4208,
  "\u2581extended": 4209,
  "\u2581\u0627\u0644\u0623\u0634\u064a\u0627\u0621": 4210,
  "\u2581markets": 4211,
  "\u2581\u062e\u0637\u0631": 4212,
  "\u2581victim": 4213,
  "\u2581\u062f\u0631\u062c\u0629": 4214,
  "\u2581Stop": 4215,
  "\u2581Her": 4216,
  "\u2581\u0645\u0624\u0633\u0633\u0629": 4217,
  "\u2581Bureau": 4218,
  "\u2581\u0627\u0644\u0634\u0627\u0645\u0644\u0629": 4219,
  "11": 4220,
  "\u2581Yugoslavia": 4221,
  "\u2581\u0644\u0644\u062c\u0645\u064a\u0639": 4222,
  "\u2581\u0637\u0644\u0628\u0627\u062a": 4223,
  "\u2581\u0627\u0644\u0645\u062c\u0645\u0648\u0639\u0627\u062a": 4224,
  "\u2581\u062a\u0631\u0643": 4225,
  "\u2581Vice": 4226,
  "\u2581blood": 4227,
  "\u2581\u0633\u0644\u0637\u0629": 4228,
  "\u2581Western": 4229,
  "ness": 4230,
  "\u2581weeks": 4231,
  "\u2581\u0627\u0644\u0627\u062d\u062a\u062c\u0627\u0632": 4232,
  "\u2581\u0627\u0644\u0645\u062f\u064a\u0646\u0629": 4233,
  "\u2581v": 4234,
  "\u2581\u062a\u062c\u0631\u064a": 4235,
  "\u2581Policy": 4236,
  "\u2581despite": 4237,
  "\u2581\u0627\u062e\u062a\u064a\u0627\u0631": 4238,
  "\u2581Cultural": 4239,
  "\u2581\u0627\u0644\u0628\u0648\u0633\u0646\u0629": 4240,
  "third": 4241,
  "\u2581\u0633\u0628\u0642": 4242,
  "\u2581democracy": 4243,
  "\u2581\u0644\u0644\u0623\u0633\u0644\u062d\u0629": 4244,
  "\u2581\u0627\u0644\u062f\u064a\u0648\u0646": 4245,
  "\u2581\u0644\u0644\u0645\u062d\u0643\u0645\u0629": 4246,
  "35": 4247,
  "\u2581model": 4248,
  "\u0644\u064a\u0646": 4249,
  "\u2581\u062a\u0633\u062c\u064a\u0644": 4250,
  "\u2581\u0639\u0636\u0648\u0627": 4251,
  "\u2581Financing": 4252,
  "\u2581agricultural": 4253,
  "\u2581\u0634\u0631\u0648\u0637": 4254,
  "\u2581Chair": 4255,
  "\u2581minimum": 4256,
  "\u2581forced": 4257,
  "\u2581\u0639\u0645\u0644\u0647": 4258,
  "\u2581\u0645\u062b\u0644\u0627": 4259,
  "\u2581origin": 4260,
  "\u2581payment": 4261,
  "\u2581\u0648\u0642\u0627\u0644\u062a": 4262,
  "\u2581Netherlands": 4263,
  "\u2581giving": 4264,
  "_": 4265,
  "\u2581\u0628\u0627\u0644\u0646\u0638\u0631": 4266,
  "\u2581\u0633\u0627\u0639\u0629": 4267,
  "\u2581\u0644\u0644\u0645\u0624\u062a\u0645\u0631": 4268,
  "\u2581advance": 4269,
  "\u2581\u064a\u062f\u0639\u0648": 4270,
  "\u2581\u0627\u0644\u0623\u0635\u0648\u0644": 4271,
  "27": 4272,
  "\u2581Experts": 4273,
  "\u2581\u0628\u0627\u0644\u0643\u0627\u0645\u0644": 4274,
  "\u2581design": 4275,
  "\u2581generally": 4276,
  "co": 4277,
  "\u2581\u062f\u0627\u062e\u0644\u064a\u0627": 4278,
  "\u2581Space": 4279,
  "nd": 4280,
  "\u2581\u0627\u0644\u062c\u0646\u0633\u0627\u0646\u064a": 4281,
  "\u2581\u0645\u062f\u064a\u0646\u0629": 4282,
  "\u2581\u062a\u0639\u0627\u0648\u0646": 4283,
  "\u2581\u0635\u063a\u064a\u0631\u0629": 4284,
  "\u2581\u0645\u062d\u0644": 4285,
  "\u2581\u0648\u0636\u0639\u062a": 4286,
  "\u2581\u0627\u0644\u0634\u0631\u0643\u0627\u0621": 4287,
  "\u2581\u0627\u0644\u0623\u0633\u0648\u0627\u0642": 4288,
  "\u2581\u0627\u0644\u0631\u0641\u064a\u0639": 4289,
  "\u2581worked": 4290,
  "\u2581\u0628\u0625\u0646\u0634\u0627\u0621": 4291,
  "\u2581Tell": 4292,
  "\u2581launched": 4293,
  "\u2581\u0625\u064a\u0644\u0627\u0621": 4294,
  "\u2581workshops": 4295,
  "\u2581Italy": 4296,
  "\u2581Strategy": 4297,
  "\u2581\u0628\u0645\u0628\u0644\u063a": 4298,
  "\u2581collection": 4299,
  "\u258159": 4300,
  "\u2581efficient": 4301,
  "\u2581offences": 4302,
  "\u2581\u0628\u0642\u0631\u0627\u0631": 4303,
  "v": 4304,
  "\u2581\u064a\u062a\u0637\u0644\u0628": 4305,
  "\u2581\u0648\u0627\u0636\u062d\u0629": 4306,
  "\u2581\u062e\u0628\u0631\u0627\u0621": 4307,
  "\u2581\u0627\u0646\u062e\u0641\u0627\u0636": 4308,
  "\u2581\u0628\u064a\u0626\u0629": 4309,
  "\u2581placed": 4310,
  "\u2581companies": 4311,
  "-5": 4312,
  "\u2581\u062e\u0641\u0636": 4313,
  "\u2581\u0627\u0644\u0627\u0639\u062a\u0631\u0627\u0641": 4314,
  "\u2581Zealand": 4315,
  "\u0666": 4316,
  "\u2581\u0641\u0647\u064a": 4317,
  "\u2581donor": 4318,
  "\u2581\u0627\u0646\u062a\u0647\u0627\u0621": 4319,
  "\u2581\u0627\u0644\u0628\u0639\u0636": 4320,
  "\u2581combating": 4321,
  "18": 4322,
  "\u2581\u0627\u0644\u0623\u0633\u0631": 4323,
  "\u2581compared": 4324,
  "\u2581knows": 4325,
  "\u2581recruitment": 4326,
  "ir": 4327,
  "\u2581\u0627\u0633\u0645": 4328,
  "\u0634\u064a": 4329,
  "\u2581finance": 4330,
  "\u0645\u064a": 4331,
  "\u2581\u0627\u0644\u062c\u0648\u064a\u0629": 4332,
  "\u2581tried": 4333,
  "\u2581territories": 4334,
  "\u2581enhanced": 4335,
  "\u2581\u0642\u0645\u062a": 4336,
  "\u2581\u0631\u0624\u0633\u0627\u0621": 4337,
  "\u2581\u064a\u0633\u0645\u062d": 4338,
  "\u2581\u0627\u062a": 4339,
  "\u2581\u0627\u0644\u0645\u0643\u0633\u064a\u0643": 4340,
  "\u2581shared": 4341,
  "\u2581oil": 4342,
  "\u2581shown": 4343,
  "\u2581fourth": 4344,
  "\u2581defined": 4345,
  "\u2581Lord": 4346,
  "\u2581\u0627\u0644\u0645\u0637\u0644\u0648\u0628\u0629": 4347,
  "\u2581\u0641\u0639\u0627\u0644": 4348,
  "\u258164": 4349,
  "\u2581estimates": 4350,
  "\u2581\u0627\u0644\u0625\u062f\u0627\u0631\u064a": 4351,
  "\u2581\u0648\u0643\u0644": 4352,
  "\u2581\u063a\u0631\u0628": 4353,
  "\u2581\u0644\u062a\u062d\u062f\u064a\u062f": 4354,
  "\u2581\u0627\u0644\u062c\u0645\u0627\u0639\u0627\u062a": 4355,
  "\u2581\u0661\u0663": 4356,
  "\u2581\u0628\u0627\u0644\u0639\u0645\u0644": 4357,
  "\u2581whom": 4358,
  "\u2581Training": 4359,
  "\u2581{\\": 4360,
  "\u2581determine": 4361,
  "\u2581immediately": 4362,
  "\u2581\u0627\u0644\u0641\u0644\u0633\u0637\u064a\u0646\u064a\u064a\u0646": 4363,
  "\u2581Indonesia": 4364,
  "\u0648\u0643": 4365,
  "70": 4366,
  "\u2581\u062a\u0623\u062b\u064a\u0631": 4367,
  "\u2581looks": 4368,
  "\u2581causes": 4369,
  "\u2581Decides": 4370,
  "\u2581\u0627\u0644\u0641\u0626\u0627\u062a": 4371,
  "\u25812009,": 4372,
  "%": 4373,
  "\u2581urges": 4374,
  "\u2581\u0627\u0644\u0645\u0639\u062f\u0627\u062a": 4375,
  "\u2581recognition": 4376,
  "j": 4377,
  "\u2581\u062a\u0645\u0631": 4378,
  "\u2581\u0662\u0661": 4379,
  "\u0648\u0646\u064a": 4380,
  "\u0627\u0646\u062a": 4381,
  "\u2581Be": 4382,
  "\u2581\u0642\u0627\u0646\u0648\u0646\u064a": 4383,
  "\u2581\u0648\u0627\u0644\u062a\u0646\u0633\u064a\u0642": 4384,
  "\u2581\u0627\u0644\u0625\u0644\u0643\u062a\u0631\u0648\u0646\u064a": 4385,
  "\u2581discuss": 4386,
  "\u2581\u0648\u0627\u0644\u062a\u0645\u064a\u064a\u0632": 4387,
  "\u2581allowed": 4388,
  "\u2581election": 4389,
  "\u2581Many": 4390,
  "\u2581Peacekeeping": 4391,
  "\u2581\u0627\u0644\u0648\u0627\u062c\u0628": 4392,
  "\u2581Sea": 4393,
  "\u2581\u0631\u0639\u0627\u064a\u0629": 4394,
  "\u2581accounts": 4395,
  "\u2581\u0627\u0644\u0633\u062c\u0646": 4396,
  "\u2581\u0627\u0644\u0645\u062a\u0641\u0642": 4397,
  "\u2581\u0627\u0644\u0645\u0645\u062a\u0644\u0643\u0627\u062a": 4398,
  "\u2581Spain": 4399,
  "\u2581\u0627\u0644\u062a\u0641\u062a\u064a\u0634": 4400,
  "\u2581representation": 4401,
  "\u2581\u0623\u062f\u0649": 4402,
  "\u2581\u062a\u062d\u0642\u0642": 4403,
  "\u2581coordinated": 4404,
  "art": 4405,
  "\u2581urged": 4406,
  "il": 4407,
  "\u2581medium": 4408,
  "\u0628\u0627\u0644": 4409,
  "\u2581\u063a\u064a\u0646\u064a\u0627": 4410,
  "\u2581unless": 4411,
  "\u2581\u062a\u0639\u0631\u064a\u0641": 4412,
  "16": 4413,
  "\u2581internationally": 4414,
  "\u0645\u0631": 4415,
  "\u2581senior": 4416,
  "\u2581nor": 4417,
  "\u2581separate": 4418,
  "\u2581\u0627\u0644\u0642\u0637\u0627\u0639\u0627\u062a": 4419,
  "\u2581inform": 4420,
  "\u2581Liberia": 4421,
  "\u2581\u064a\u0624\u0643\u062f": 4422,
  "\u2581\u0627\u0644\u0625\u0639\u062f\u0627\u0645": 4423,
  "\u2581\u062a\u064a\u0645\u0648\u0631": 4424,
  "\u2581migration": 4425,
  "\u0627\u0626\u0647\u0627": 4426,
  "\u2581;": 4427,
  "\u2581UNIDO": 4428,
  "\u2581engaged": 4429,
  "\u2581\u0627\u0644\u0647\u064a\u0627\u0643\u0644": 4430,
  "\u2581\u0627\u0644\u0633\u0646": 4431,
  "\u2581\u0627\u0644\u0645\u0628\u0627\u062f\u0631\u0629": 4432,
  "\u2581\u0623\u0633\u0628\u0627\u0628": 4433,
  "\u2581\u0645\u0647\u0644\u0627": 4434,
  "\u2581\u062a\u062c\u0627\u0647": 4435,
  "\u2581interested": 4436,
  "\u2581aircraft": 4437,
  "\u2581\u0627\u0644\u0643\u0627\u0645\u0644\u0629": 4438,
  "\u2581\u0648\u0627\u0633\u0639\u0629": 4439,
  "\u2581\u0627\u0644\u062e\u0627\u0631\u062c": 4440,
  "\u062a\u0648\u0642\u064a\u0639": 4441,
  "\u2581Cyprus": 4442,
  "\u2581drugs": 4443,
  "\u2581\u062a\u0639\u062a\u0645\u062f": 4444,
  "\u2581reviewed": 4445,
  "\u062f\u062a": 4446,
  "\u2581strengthened": 4447,
  "\u2581stuff": 4448,
  "\u2581participated": 4449,
  "\u0643\u0646": 4450,
  "of": 4451,
  "\u2581\u0630\u064a": 4452,
  "\u2581imposed": 4453,
  "\u2581\u0648\u0627\u0644\u0645\u062d\u064a\u0637": 4454,
  "\u2581\u0627\u0644\u0645\u0646\u062a\u062f\u0649": 4455,
  "\u2581Northern": 4456,
  "\u2581\u0648\u0627\u0644\u0627\u062a\u062d\u0627\u062f": 4457,
  "\u2581religion": 4458,
  "\u2581\u0623\u0644\u0645\u0627\u0646\u064a\u0627": 4459,
  "\u2581couldn": 4460,
  "\u0633\u0627\u0645": 4461,
  "W": 4462,
  "\u2581\u0627\u0644\u0644\u0639\u0646\u0629": 4463,
  "\u2581dad": 4464,
  "\u2581headquarters": 4465,
  "\u2581\u0627\u0644\u0623\u0632\u0645\u0629": 4466,
  "\u2581\u0645\u0642\u0631\u0631": 4467,
  "\u2581constitute": 4468,
  "\u2581\u0627\u0644\u0645\u0628\u062f\u0623": 4469,
  "\u2581\u0644\u0639\u062f\u0645": 4470,
  "\u2581\u0628\u0639\u0645\u0644": 4471,
  "\u2581\u0627\u0644\u0647\u0627\u0645\u0629": 4472,
  "ion": 4473,
  "\u2581determined": 4474,
  "\u2581husband": 4475,
  "\u2581\u062a\u0642\u062f\u064a\u0631": 4476,
  "\u2581declaration": 4477,
  "\u2581grounds": 4478,
  "\u0627\u0637": 4479,
  "\u2581\u062a\u0624\u062b\u0631": 4480,
  "\u2581\u062e\u062f\u0645\u0629": 4481,
  "\u2581tonight": 4482,
  "\u2581actual": 4483,
  "\u2581students": 4484,
  "\u062f\u0648": 4485,
  "J": 4486,
  "\u2581type": 4487,
  "\u2581\u0648\u0631\u063a\u0645": 4488,
  "\u062c\u062f": 4489,
  "\u2581\u062a\u062d\u062f\u062b": 4490,
  "\u2581\u062a\u062a\u0635\u0644": 4491,
  "\u2581ex": 4492,
  "\u2581floor": 4493,
  "\u2581supposed": 4494,
  "\u2581\u0627\u0644\u0625\u0635\u0644\u0627\u062d": 4495,
  "@": 4496,
  "\u2581workshop": 4497,
  "\u2581\u0627\u0644\u062c\u0646\u0627\u0626\u064a": 4498,
  "\u2581\u0627\u0644\u062a\u0628\u0631\u0639\u0627\u062a": 4499,
  "\u2581reduced": 4500,
  "\u2581\u0628\u0646\u0627": 4501,
  "\u2581favour": 4502,
  "\u2581raise": 4503,
  "\u2581options": 4504,
  "\u2581records": 4505,
  "\u2581\u0627\u0646\u062a\u0647\u0627\u0643": 4506,
  "\u2581\u0632": 4507,
  "\u2581\u0627\u0644\u0627\u0633\u062a\u0641\u0627\u062f\u0629": 4508,
  "\u2581function": 4509,
  "\u2581\u063a\u0636\u0648\u0646": 4510,
  "48": 4511,
  "\u2581inclusion": 4512,
  "\u2581comes": 4513,
  "\u2581\u0627\u0644\u062c\u0632\u0631\u064a\u0629": 4514,
  "\u2581\u0644\u0627\u062d\u0642\u0627": 4515,
  "\u0643\u064a": 4516,
  "\u2581stand": 4517,
  "\u2581\u062a\u0634\u0639\u0631": 4518,
  "\u2581\u0627\u0644\u062b\u0644\u0627\u062b\u0629": 4519,
  "second": 4520,
  "\u2581emphasized": 4521,
  "\u2581\u0634\u0643": 4522,
  "\u2581\u0646\u0641\u0633\u0643": 4523,
  "\u2581\u062c\u062f": 4524,
  "\u2581\u0648\u063a\u064a\u0631\u0647": 4525,
  "\u2581\u0623\u0634\u0639\u0631": 4526,
  "\u2581\u0627\u0644\u0623\u062c\u0646\u0628\u064a": 4527,
  "\u2581\u0648\u0627\u0644\u0642\u0627\u0646\u0648\u0646": 4528,
  "\u2581\u0627\u0644\u0641\u062a\u064a\u0627\u062a": 4529,
  "\u2581\u064a\u0646\u0638\u0631": 4530,
  "\u2581\u0628\u062f\u0627\u064a\u0629": 4531,
  "\u2581listen": 4532,
  "\u2581\u0627\u0644\u0645\u0639\u062a\u0645\u062f\u0629": 4533,
  "\u2581wide": 4534,
  "\u062d\u062a": 4535,
  "\u2581\u0645\u0642\u0627\u0631\u0646\u0629": 4536,
  "\u2581\u0661\u0664": 4537,
  "\u25814-": 4538,
  "\u2581\u0648\u0636\u0645\u0627\u0646": 4539,
  "\u2581accepted": 4540,
  "\u2581types": 4541,
  "\u2581complex": 4542,
  "\u2581\u0648\u0627\u0644\u062f\u0648\u0644": 4543,
  "\u2581Dad": 4544,
  "\u2581organs": 4545,
  "\u2581owing": 4546,
  "\u2581ad": 4547,
  "\u2581Sir": 4548,
  "\u2581\u0644\u0628\u0646\u0627\u0621": 4549,
  "\u2581chance": 4550,
  "\u2581site": 4551,
  "\u2581\u0644\u0644\u0646\u0638\u0631": 4552,
  "\u2581\u0623\u0631\u0649": 4553,
  "\u2581\u062a\u0631\u062a\u064a\u0628\u0627\u062a": 4554,
  "\u2581boys": 4555,
  "\u2581\u0627\u0644\u0635\u0639\u064a\u062f\u064a\u0646": 4556,
  "\u2581history": 4557,
  "\u2581\u0644\u0623\u062d\u0643\u0627\u0645": 4558,
  "\u2581\u0661\u0669\u0669\u0668": 4559,
  "\u258113.": 4560,
  "\u2581kid": 4561,
  "\u2581\u0627\u0644\u0641\u0627\u0639\u0644\u0629": 4562,
  "\u2581\u0627\u0644\u0627\u0633\u062a\u0631\u0627\u062a\u064a\u062c\u064a": 4563,
  "\u2581\u0627\u0644\u0645\u0647\u0627\u0645": 4564,
  "\u2581near": 4565,
  "\u2581remaining": 4566,
  "\u0627\u0626": 4567,
  "\u2581Timor": 4568,
  "\u2581agree": 4569,
  "\u2581\u0627\u0644\u0645\u062e\u062a\u0635\u0629": 4570,
  "\u2581crucial": 4571,
  "\u2581\u0639\u0642\u062f\u062a": 4572,
  "\u2581Really": 4573,
  "\u2581\u0627\u0644\u0645\u0634\u0627\u0631\u0643\u064a\u0646": 4574,
  "\u0631\u0627\u0621": 4575,
  "\u2581\u0627\u0644\u0623\u062b\u0631": 4576,
  "\u2581science": 4577,
  "\u2581\u0627\u0644\u0623\u062f\u0646\u0649": 4578,
  "\u2581\u0627\u0644\u0627\u0633\u062a\u062c\u0627\u0628\u0629": 4579,
  "\u2581\u0627\u0644\u0645\u0631\u0627\u0642\u0628\u0629": 4580,
  "\u2581\u0627\u0644\u0623\u0633\u0645\u0627\u0643": 4581,
  "\u2581\u0627\u0644\u0642\u0627\u062f\u0645\u0629": 4582,
  "\u2581\u0631\u0641\u0639": 4583,
  "\u2581Norway": 4584,
  "\u2581\u0648\u0627\u0644\u062d\u0631\u064a\u0627\u062a": 4585,
  "\u2581learned": 4586,
  "\u0644\u064a\u0633": 4587,
  "\u2581\u0627\u0644\u0633\u0627\u0645\u064a": 4588,
  "\u2581Me": 4589,
  "\u2581gross": 4590,
  "\u0628\u064a\u0646": 4591,
  "\u2581\u2013": 4592,
  "\u2581\u0627\u0644\u0634\u062e\u0635\u064a\u0629": 4593,
  "\u2581\u0627\u0644\u0648\u0641\u062f": 4594,
  "\u2581Research": 4595,
  "\u2581cut": 4596,
  "(:": 4597,
  "\u2581Framework": 4598,
  "\u2581\u0648\u0623\u0634\u0627\u0631\u062a": 4599,
  "\u2581\u0628\u062a\u0639\u0632\u064a\u0632": 4600,
  "\u2581news": 4601,
  "\u2581\u0627\u0644\u0645\u0633\u0644\u062d": 4602,
  "\u2581scale": 4603,
  "\u2581\u0634\u0645\u0627\u0644": 4604,
  "\u2581solutions": 4605,
  "\u2581\u0627\u0644\u062f\u0648\u0631\u0627\u062a": 4606,
  "\u2581Jesus": 4607,
  "\u2581earlier": 4608,
  "for": 4609,
  "\u2581\u0628\u0627\u0639\u062a\u0628\u0627\u0631\u0647\u0627": 4610,
  "\u2581\u0627\u0644\u0645\u0637\u0627\u0644\u0628\u0627\u062a": 4611,
  "\u2581\u0627\u0644\u062a\u0623\u0643\u064a\u062f": 4612,
  "\u2581Staff": 4613,
  "proliferation": 4614,
  "\u2581town": 4615,
  "\u2581\u0644\u0627\u062a\u0641\u0627\u0642\u064a\u0629": 4616,
  "33": 4617,
  "\u2581authorized": 4618,
  "\u2581represented": 4619,
  "\u2581industry": 4620,
  "\u2581threats": 4621,
  "\u2581Ministers": 4622,
  "\u2581\u0627\u0644\u0631\u0623\u064a": 4623,
  "\u2581namely": 4624,
  "\u2581\u0627\u064a\u0636\u0627": 4625,
  "\u2581perspective": 4626,
  "w": 4627,
  "\u2581press": 4628,
  "\u2581\u0645\u0633\u062a\u0642\u0644\u0629": 4629,
  "\u0631\u0627\u062f": 4630,
  "\u2581component": 4631,
  "\u2581\u062a\u062e\u0641\u064a\u0636": 4632,
  "\u2581Gender": 4633,
  "\u2581\u0627\u0644\u0635": 4634,
  "\u2581integrity": 4635,
  "\u2581\u0641\u0645\u0646": 4636,
  "\u2581kids": 4637,
  "\u2581Trust": 4638,
  "\u0648\u062a": 4639,
  "\u2581\u0645\u0635\u0631": 4640,
  "\u2581\u0623\u062c\u0647\u0632\u0629": 4641,
  "\u2581\u0645\u0648\u0638\u0641": 4642,
  "\u2581\u0633\u064a\u0631\u0627\u0644\u064a\u0648\u0646": 4643,
  "\u2581highest": 4644,
  "age": 4645,
  "\u2581series": 4646,
  "\u2581moment": 4647,
  "\u2581\u0627\u0639\u062a\u0642\u062f": 4648,
  "\u2581\u0648\u062a\u062d\u062f\u064a\u062f": 4649,
  "\u2581\u0627\u0644\u063a": 4650,
  "\u2581\u0627\u0644\u062a\u0646\u0648\u0639": 4651,
  "\u2581specifically": 4652,
  "\u2581\u0641\u0631\u0636": 4653,
  "\u2581subsequent": 4654,
  "\u2581observers": 4655,
  "\u2581\u0627\u0644\u0639\u0644\u0645": 4656,
  "\u2581\u0628\u0639\u062b\u0627\u062a": 4657,
  "\u2581\u0628\u062f\u0639\u0645": 4658,
  "ninth": 4659,
  "ive": 4660,
  "\u0627\u0646\u0627": 4661,
  "\u0630\u0627": 4662,
  "\u2581\u0648\u0646\u0638\u0631\u0627": 4663,
  "\u2581al": 4664,
  "\u2581\u0623\u0642\u0631\u0628": 4665,
  "\u2581\u0627\u0644\u062b\u0642\u0627\u0641\u064a\u0629": 4666,
  "\u2581\u0661\u0669\u0669\u0667": 4667,
  "\u2581\u0648\u062a\u0642\u064a\u064a\u0645": 4668,
  "\u2581\u0628\u0645\u0646": 4669,
  "\u2581\u0627\u0644\u0633\u0648\u0631\u064a\u0629": 4670,
  "\u2581participating": 4671,
  "\u2581\u0644\u062f\u064a\u0647\u0645": 4672,
  "\u2581\u064a\u0633\u0627\u0639\u062f": 4673,
  "\u2581assess": 4674,
  "\u2581recognize": 4675,
  "\u2581attack": 4676,
  "\u2581\u0627\u062c\u0644": 4677,
  "\u2581\u0627\u0644\u0645\u062f\u0631\u0633\u0629": 4678,
  "\u2581\u0627\u0644\u0639\u0638\u0645\u0649": 4679,
  "\u2581300": 4680,
  "\u2581resulted": 4681,
  "\u2581\u0633\u0627": 4682,
  "\u2581\u0661\u0669\u0669\u0663": 4683,
  "\u2581\u062a\u0628\u0630\u0644\u0647\u0627": 4684,
  "\u2581\u0631\u0623\u0633": 4685,
  "\u2581eight": 4686,
  "\u2581\u0644\u0632\u064a\u0627\u062f\u0629": 4687,
  "\u2581\u062d\u0644\u0642\u0627\u062a": 4688,
  "\u25812010.": 4689,
  "\u2581figure": 4690,
  "\u2581\u062a\u0631\u062f": 4691,
  "\u2581\u0627\u0644\u0645\u062a\u0631\u062a\u0628\u0629": 4692,
  "\u0647\u064a": 4693,
  "\u2581base": 4694,
  "\u2581Internet": 4695,
  "\u2581eliminate": 4696,
  "\u2581\u0644\u0644\u0641\u0642\u0631\u0629": 4697,
  "\u2581\u0627\u0644\u0643\u0628\u064a\u0631\u0629": 4698,
  "\u2581risks": 4699,
  "\u2581yes": 4700,
  "\u2581\u0627\u0644\u0645\u062a\u0648\u0633\u0637": 4701,
  "ul": 4702,
  "\u2581competition": 4703,
  "\u2581\u0627\u0644\u062a\u0627\u0645": 4704,
  "\u2581\u0627\u0644\u0625\u064a\u0631\u0627\u062f\u0627\u062a": 4705,
  "\u2581round": 4706,
  "\u2581\u0627\u0644\u0645\u064a\u062b\u0627\u0642": 4707,
  "\u2581emphasis": 4708,
  "\u2581\u062a\u0646\u0641\u064a\u0630\u0647\u0627": 4709,
  "no": 4710,
  "\u0643\u0627\u0646": 4711,
  "\u2581\u062e\u0637\u0648\u0627\u062a": 4712,
  "\u2581mom": 4713,
  "\u2581\u0627\u0644\u0623\u0641\u0636\u0644": 4714,
  "\u2581\u0627\u0644\u062a\u0642\u062f\u064a\u0631": 4715,
  "\u2581reducing": 4716,
  "\u2581\u0627\u0644\u0627\u0639\u062a\u0645\u0627\u062f": 4717,
  "\u2581\u0639\u0645\u0648\u0645\u0627": 4718,
  "\u2581Even": 4719,
  "\u2581\u0627\u0644\u0635\u0641\u062d\u0629": 4720,
  "\u258114.": 4721,
  "\u2581\u0627\u0644\u0625\u0633\u0631\u0627\u0626\u064a\u0644\u064a": 4722,
  "\u2581\u0634\u0639\u0628": 4723,
  "\u2581Corr": 4724,
  "\u0628\u0648\u0644": 4725,
  "\u2581\u0627\u0644\u0645\u0646": 4726,
  "\u2581\u0648\u064a\u062c\u0631\u064a": 4727,
  "\u2581targets": 4728,
  "\u2581\u0625\u0632\u0627\u0644\u0629": 4729,
  "\u2581Asian": 4730,
  "\u2581Burundi": 4731,
  "\u0635\u0641": 4732,
  "\u2581\u0627\u0644\u0645\u0648\u062c\u0647\u0629": 4733,
  "na": 4734,
  "\u2581\u0627\u0644\u0645\u062a\u0639\u062f\u062f": 4735,
  "\u2581\u0627\u0644\u0625\u0644\u0643\u062a\u0631\u0648\u0646\u064a\u0629": 4736,
  "\u2581tomorrow": 4737,
  "\u2581affairs": 4738,
  "\u2581\u0627\u0644\u0633\u0627\u062d\u0644\u064a\u0629": 4739,
  "\u2581Chamber": 4740,
  "\u2581\u0633\u064a\u0627\u0633\u064a\u0629": 4741,
  "\u2581\u0627\u0644\u0641\u0639\u0627\u0644": 4742,
  "\u2581break": 4743,
  "\u2581appointed": 4744,
  "\u2581spirit": 4745,
  "\u2581centre": 4746,
  "\u2581\u0627\u0631\u062a\u0641\u0627\u0639": 4747,
  "\u25812009\u060c": 4748,
  "\u0623\u064a": 4749,
  "\u2581ratification": 4750,
  "\u0627\u0631\u0627\u062a": 4751,
  "\u2581\u062e\u0627\u0631\u062c\u064a\u0629": 4752,
  "\u2581easy": 4753,
  "\u2581\u0623\u0633\u0639\u0627\u0631": 4754,
  "\u2581\u0623\u0634\u0627\u0631": 4755,
  "\u2581\u0648\u0628\u0631\u0627\u0645\u062c": 4756,
  "\u063a\u064a": 4757,
  "\u258175": 4758,
  "\u2581\u0641\u0631\u0642\u0629": 4759,
  "\u2581\u0627\u0644\u0637\u0631\u0642": 4760,
  "\u2581\u0627\u0644\u0633\u0648\u0642": 4761,
  "\u2581hit": 4762,
  "\u2581Switzerland": 4763,
  "\u2581\u0633\u0644\u0637\u0627\u062a": 4764,
  "\u2581chapter": 4765,
  "\u2581\u0627\u0644\u0622\u0644\u064a\u0629": 4766,
  "28": 4767,
  "\u2581\u0641\u0636\u0644\u0643": 4768,
  "\u0627\u0631\u0629": 4769,
  "\u2581Mrs": 4770,
  "\u2581unit": 4771,
  "\u0631\u0628": 4772,
  "\u2581secure": 4773,
  "\u2581\u0634\u064a\u0626": 4774,
  "\u2581\u0641\u0647\u0648": 4775,
  ".1)": 4776,
  "\u2581\u0648\u0644\u0646": 4777,
  "\u2581(1": 4778,
  "\u2581deep": 4779,
  "\u2581\u0644\u0644\u062f\u0648\u0631\u0629": 4780,
  "\u2581\u062a\u0634\u0643\u064a\u0644": 4781,
  "\u2581\u0628\u0639\u062f\u0645": 4782,
  "\u2581eyes": 4783,
  "\u2581insurance": 4784,
  "eighth": 4785,
  "\u0633\u0648": 4786,
  "\u2581\u0645\u0634\u062a\u0631\u0643": 4787,
  "\u2581\u0648\u062a\u062d\u0642\u064a\u0642": 4788,
  "\u2581\u0627\u0644\u062b\u0644\u0627\u062b": 4789,
  "\u2581\u0627\u0644\u062c\u062d\u064a\u0645": 4790,
  "\u2581\u0648\u0627\u0644\u0625": 4791,
  "\u2581\u0643\u0627\u0641": 4792,
  "\u2581consent": 4793,
  "\u2581\u0628\u0627\u0644\u062a\u0642\u0631\u064a\u0631": 4794,
  "\u2581places": 4795,
  "\u2581extend": 4796,
  "\u2581\u0645\u062f": 4797,
  "\u2581\u0627\u0644\u0623\u0644\u0641\u064a\u0629": 4798,
  "\u2581\u062a\u0639\u0631\u0628": 4799,
  "\u2581\u0627\u0644\u0622\u0644\u064a\u0627\u062a": 4800,
  "\u2581\u0662\u0660": 4801,
  "\u2581guarantee": 4802,
  "\u2581\u062a\u0635\u0645\u064a\u0645": 4803,
  "\u2581\u0627\u0644\u0627\u0633\u062a": 4804,
  "\u2581mutual": 4805,
  "\u2581\u0648\u0627\u0644\u0622\u0646": 4806,
  "\u2581\u0645\u0631\u0627\u0641\u0642": 4807,
  "\u2581\u0644\u0625\u062c\u0631\u0627\u0621": 4808,
  "\u2581\u0634\u0623\u0646\u0647": 4809,
  "\u2581\u0627\u0645\u0631\u0623\u0629": 4810,
  "\u2581story": 4811,
  "\u2581\u0627\u0644\u0628\u064a\u0648\u0644\u0648\u062c\u064a": 4812,
  "\u2581\u0648\u0642\u0639\u062a": 4813,
  "\u2581Chairperson": 4814,
  "\u2581\u0627\u0644\u0628\u0646\u0643": 4815,
  "\u2581\u0627\u0644\u063a\u0627\u0628\u0627\u062a": 4816,
  "\u2581\u064a\u0635\u0628\u062d": 4817,
  "\u2581died": 4818,
  "\u2581Humanitarian": 4819,
  "\u2581\u064a\u0636\u0637\u0644\u0639": 4820,
  "\u2581Argentina": 4821,
  "\u062f\u0627\u0646": 4822,
  "\u2581\u0640\u0640": 4823,
  "\u2581\u0627\u0644\u0645\u0645\u0627\u0631\u0633\u0629": 4824,
  "\u2581Technology": 4825,
  "\u2581\u0627\u0644\u0634\u0628\u0643\u0629": 4826,
  "ro": 4827,
  "\u2581\u0648\u062e\u062f\u0645\u0627\u062a": 4828,
  "\u25811999,": 4829,
  "\u2581\u0627\u0644\u062c\u0627\u0646\u0628": 4830,
  "\u2581Gaza": 4831,
  "\u2581\u062a\u0647\u062f\u0641": 4832,
  "\u2581\u0630\u0627\u062a\u0647\u0627": 4833,
  "\u2581applications": 4834,
  "\u2581\u0639\u0627\u0644\u0645\u064a\u0629": 4835,
  "pos": 4836,
  "36": 4837,
  "\u0631\u062f": 4838,
  "\u2581check": 4839,
  "\u2581\u0627\u0644\u0646\u0647\u0627\u0626\u064a\u0629": 4840,
  "\u2581\u0644\u0643\u0646\u0647": 4841,
  "37": 4842,
  "\u2581\u064a\u0633\u062a\u0637\u064a\u0639": 4843,
  "\u2581Decade": 4844,
  "\u2581worry": 4845,
  "\u2581\u0634\u0631\u0637\u0629": 4846,
  "\u2581\u0628\u0644\u062f\u064a": 4847,
  "\u2581\u0627\u0644\u0643\u0628\u064a\u0631": 4848,
  "\u2581organizational": 4849,
  "\u2581credit": 4850,
  "47": 4851,
  "\u0648\u0632": 4852,
  "\u2581\u0627\u0644\u0633\u0644\u0648\u0643": 4853,
  "\u2581\u0627\u062a\u062e\u0630\u062a": 4854,
  "\u2581fields": 4855,
  "\u2581Population": 4856,
  "\u2581\u0627\u0644\u0645\u0624\u0633\u0633\u064a\u0629": 4857,
  "\u2581aware": 4858,
  "43": 4859,
  "\u2581\u0627\u0644\u0646\u0627\u062c\u0645\u0629": 4860,
  "\u2581\u063a": 4861,
  "\u2581\u0623\u0631\u062c\u0648\u0643": 4862,
  "\u2581\u0648\u0627\u0636\u062d": 4863,
  "\u2581\u0627\u0644\u0625\u062c\u0631\u0627\u0621": 4864,
  "\u2581Sub": 4865,
  "\u2581\u0647\u0627\u064a\u062a\u064a": 4866,
  "\u2581\u0637\u0648\u064a\u0644": 4867,
  "\u2581\u062a\u062e\u0637\u064a\u0637": 4868,
  "Y": 4869,
  "\u2581\u062c\u0647\u0627\u0632": 4870,
  "\u2581\u062a\u062f\u062e\u0644": 4871,
  "\u2581\u0648\u0627\u0644\u0625\u062c\u0631\u0627\u0621\u0627\u062a": 4872,
  "\u2581\u0648\u0633\u0637": 4873,
  "\u2581\u0644\u0644\u062a\u0648": 4874,
  "\u2581\u0627\u0644\u0623\u0633\u0628\u0648\u0639": 4875,
  "\u2581Listen": 4876,
  "\u2581\u0627\u0644\u0633\u0644\u0627\u0645\u0629": 4877,
  "\u0631\u0627": 4878,
  "\u2581collective": 4879,
  "\u0631\u0633": 4880,
  "\u2581\u0623\u0634\u062e\u0627\u0635": 4881,
  "\u062f\u0627\u0645": 4882,
  "\u2581\u0625\u0644": 4883,
  "\u2581\u0627\u0644\u062a\u0627\u0631\u064a\u062e": 4884,
  "\u2581\u0627\u0644\u064a": 4885,
  "96": 4886,
  "\u2581paras": 4887,
  "\u2581\u0642\u0644\u0642": 4888,
  "\u2581\u0627\u0644\u0643\u062a\u0627\u0628": 4889,
  "CP": 4890,
  "\u2581\u0645\u0642\u062a\u0631\u062d\u0627\u062a": 4891,
  "90": 4892,
  "\u2581approximately": 4893,
  "\u2581\u0648\u0631\u0642\u0629": 4894,
  "\u2581Questions": 4895,
  "\u2581\u0648\u0642\u0648\u0639": 4896,
  "\u062a\u0627": 4897,
  "\u2581Prosecutor": 4898,
  "\u2581\u0627\u0644\u0634\u0643\u0648\u0649": 4899,
  "\u2581\u0627\u0644\u0645\u0631\u062a\u0628\u0637\u0629": 4900,
  "\u2581\u0642\u0644\u0642\u0647\u0627": 4901,
  "\u2581\u064a\u0648\u0627\u0635\u0644": 4902,
  "\u2581hurt": 4903,
  "\u258115.": 4904,
  "44": 4905,
  "UN": 4906,
  "\u2581\u0627\u0644\u0639\u0648\u0627\u0645\u0644": 4907,
  "\u2581\u0645\u0628\u0627\u062f\u0631\u0627\u062a": 4908,
  "\u2581\u0648\u0633\u0627\u0626\u0637": 4909,
  "\u2581\u0645\u062c\u062a\u0645\u0639": 4910,
  "\u2581\u0627\u0644\u0645\u0648\u0627\u0637\u0646\u064a\u0646": 4911,
  "\u2581Allah": 4912,
  "\u2581advisory": 4913,
  "\u2581\u0643\u0648\u062a": 4914,
  "\u2581\u0627\u0644\u0645\u062f\u0639\u064a": 4915,
  "\u2581Another": 4916,
  "\u2581\u0627\u0633\u062a\u062c\u0627\u0628\u0629": 4917,
  "\u2581Deputy": 4918,
  "\u2581\u062a\u0645\u0643\u064a\u0646": 4919,
  "\u2581\u0644\u064a\u0644\u0629": 4920,
  "\u2581corruption": 4921,
  "\u2581\u0635\u0648\u0631\u0629": 4922,
  "\u2581\u0627\u0644\u0645\u062e\u0635\u0635": 4923,
  "\u062d\u0644": 4924,
  "\u2581category": 4925,
  "\u2581waste": 4926,
  "\u2581Status": 4927,
  "/1": 4928,
  "\u2581exactly": 4929,
  "39": 4930,
  "29": 4931,
  "\u2581Man": 4932,
  "\u2581\u0644\u0645\u0633\u0627\u0639\u062f\u0629": 4933,
  "\u2581increasingly": 4934,
  "\u2581More": 4935,
  "\u2581\u062a\u0648\u062f": 4936,
  "46": 4937,
  "22": 4938,
  "\u2581appointment": 4939,
  "\u2581\u0627\u0644\u0627\u0633\u062a\u0634\u0627\u0631\u064a": 4940,
  "\u2581\u0639\u0644": 4941,
  "\u2581works": 4942,
  "ary": 4943,
  "\u2581outcomes": 4944,
  "\u2581\u0627\u0644\u0625\u0642\u0644\u064a\u0645": 4945,
  "\u0627\u0643": 4946,
  "\u0639\u0644\u0649": 4947,
  "iv": 4948,
  "\u2581\u0627\u0644\u0645\u0646\u0638\u0648\u0631": 4949,
  "seventh": 4950,
  "\u2581\u0628\u0646\u062f": 4951,
  "\u2581\u062c\u0648": 4952,
  "\u2581\u0648\u0627\u0644\u0625\u062f\u0627\u0631\u0629": 4953,
  "\u2581\u062f\u062e\u0648\u0644": 4954,
  "\u0641\u0629": 4955,
  "ian": 4956,
  "\u2581\u0627\u0644\u0632\u064a\u0627\u062f\u0629": 4957,
  "\u064a\u0647\u0627": 4958,
  "\u2581\u0627\u0644\u0623\u0631\u062c\u0646\u062a\u064a\u0646": 4959,
  "\u2581\u062a\u0631\u063a\u0628": 4960,
  "ate": 4961,
  "\u2581Introduction": 4962,
  "\u2581registration": 4963,
  "\u2581Haiti": 4964,
  "\u2581Ukraine": 4965,
  "\u2581norms": 4966,
  "\u2581sign": 4967,
  "\u2581contributed": 4968,
  "\u2581\u0627\u0644\u062a\u062d\u0642\u0642": 4969,
  "\u2581contains": 4970,
  "\u2581\u0644\u0627\u0628\u062f": 4971,
  "\u2581\u0648\u0645\u0643\u062a\u0628": 4972,
  "\u2581convention": 4973,
  "\u2581expression": 4974,
  "\u2581publication": 4975,
  "\u2581speaking": 4976,
  "\u2581\u0635\u0639\u064a\u062f": 4977,
  "\u2581emerging": 4978,
  "\u2581\u062f\u064a\u0633\u0645\u0628\u0631": 4979,
  "\u2581choice": 4980,
  "\u2581Provision": 4981,
  "\u2581(19": 4982,
  "\u2581\u0627\u0644\u0645\u0639\u0642\u0648\u062f": 4983,
  "77": 4984,
  "\u2581\u062c\u0647\u0629": 4985,
  "\u2581\u0644\u0644\u0623": 4986,
  "\u2581consumption": 4987,
  "\u2581\u062a\u0630\u0647\u0628": 4988,
  "South": 4989,
  "\u2581enjoyment": 4990,
  "\u2581\u0644\u0644\u0628\u0639\u062b\u0629": 4991,
  "/4": 4992,
  "\u2581fall": 4993,
  "\u2581\u0627\u0644\u0637\u0627\u0628\u0639": 4994,
  "\u2581\u0627\u0644\u0643\u0644\u0645\u0629": 4995,
  "\u2581\u0645\u0647\u0645\u0627": 4996,
  "\u2581\u0625\u0646\u0647\u0645": 4997,
  "\u2581\u0648\u0630\u0643\u0631": 4998,
  "\u2581territorial": 4999,
  "\u2581\u0631\u0641\u0636": 5000,
  "\u2581Give": 5001,
  "\u25815-": 5002,
  "\u2581published": 5003,
  "CONF": 5004,
  "ia": 5005,
  "\u2581\u0636": 5006,
  "\u2581whatever": 5007,
  "\u2581TO": 5008,
  "\u2581offence": 5009,
  "\u2581mainly": 5010,
  "\u2581(212)": 5011,
  "\u2581crazy": 5012,
  "\u2581\u0627\u0644\u0623\u062d\u064a\u0627\u0646": 5013,
  "te": 5014,
  "\u2581\u0648\u0631\u0627\u0621": 5015,
  "\u2581\u062a\u062d\u062f\u062f": 5016,
  "\u2581\u062a\u0639\u0627\u0644": 5017,
  "\u2581fulfil": 5018,
  "\u2581huh": 5019,
  "55": 5020,
  "\u25814,": 5021,
  "\u2581\u0648\u0623\u062e\u064a\u0631\u0627": 5022,
  "\u2581charge": 5023,
  "\u258163": 5024,
  "\u2581elimination": 5025,
  "\u2581\u0648\u062a\u0644\u0627\u062d\u0638": 5026,
  "\u2581\u0627\u0644\u0645\u0646\u0627\u0641\u0633\u0629": 5027,
  "\u0642\u0644": 5028,
  "\u2581\u0625\u0646\u0647\u0627\u0621": 5029,
  "\u2581\u0628\u0645\u0642\u062a\u0636\u0649": 5030,
  "\u2581expenditures": 5031,
  "fourth": 5032,
  "\u2581Co": 5033,
  "\u2581failure": 5034,
  "\u2581\u0648\u0643": 5035,
  "\u2581\u0647\u0627\u0645": 5036,
  "\u2581\u0623\u0633\u0627\u0633\u064a": 5037,
  "\u064a\u0643": 5038,
  "\u2581\u0627\u0644\u0642\u0636\u0627\u0626\u064a": 5039,
  "\u2581felt": 5040,
  "\u2581fun": 5041,
  "\u2581\u0627\u0644\u0630\u0631\u064a\u0629": 5042,
  "\u2581\u0628\u0627\u0644\u0623": 5043,
  "\u2581Nothing": 5044,
  "\u2581\u0628\u0634\u0623\u0646\u0647\u0627": 5045,
  "\u2581Internal": 5046,
  "\u2581ahead": 5047,
  "\u2581\u062a\u062d\u0648\u064a\u0644": 5048,
  "\u2581\u0648\u0641\u062f\u0647": 5049,
  "\u2581\u0627\u0644\u0628\u062d\u0648\u062b": 5050,
  "\u2581Colombia": 5051,
  "\u2581\u0627\u0644\u0645\u0624\u0633\u0633\u0629": 5052,
  "\u2581\u0648\u0635\u0648\u0644": 5053,
  "\u2581\u0627\u0644\u0639\u0642\u0627\u0628": 5054,
  "\u2581\u0645\u0648\u0642\u0641": 5055,
  "\u2581\u0648\u0627\u0644\u062c\u0631\u064a\u0645\u0629": 5056,
  "\u2581\u0623\u0630\u0647\u0628": 5057,
  "\u0645\u0648": 5058,
  "\u2581\u0627\u0644\u0639\u0642\u0648\u0628\u0629": 5059,
  "\u2581shot": 5060,
  "\u2581minute": 5061,
  "\u2581\u0627\u0644\u0637\u0631\u0641\u064a\u0646": 5062,
  "\u2581test": 5063,
  "\u2581\u0623\u0647\u0645": 5064,
  "\u2581Adoption": 5065,
  "\u2581\u0627\u0644\u0645\u0637\u0644\u0648\u0628": 5066,
  "$": 5067,
  "\u2581reintegration": 5068,
  "\u2581answer": 5069,
  "\u2581arrest": 5070,
  "\u2581goes": 5071,
  "\u2581findings": 5072,
  "\u2581\u0643\u0627\u0645\u0644\u0627": 5073,
  "ty": 5074,
  "\u2581\u0627\u0644\u062a\u0645\u062a\u0639": 5075,
  "ta": 5076,
  "\u2581\u062a\u062a\u0633\u0645": 5077,
  "\u2581\u0633\u062c\u0644": 5078,
  "\u062f\u0648\u0646": 5079,
  "\u2581engage": 5080,
  "\u2581front": 5081,
  "\u2581\u0627\u0644\u0623\u0633\u0628\u0627\u0628": 5082,
  "\u2581Noting": 5083,
  "\u2581rise": 5084,
  "\u2581Sweden": 5085,
  "\u2581sovereignty": 5086,
  "\u2581\u0623\u0635\u0644": 5087,
  "\u2581\u0644\u062a\u0648\u0641\u064a\u0631": 5088,
  "\u0627\u0632": 5089,
  "\u2581recorded": 5090,
  "\u2581contracts": 5091,
  "\u2581\u062a\u0633\u0645\u062d": 5092,
  "\u2581\u0627\u0644\u0639\u0633\u0643\u0631\u064a": 5093,
  "\u2581competent": 5094,
  "26": 5095,
  "\u2581\u062a\u0634\u063a\u064a\u0644": 5096,
  "\u2581minorities": 5097,
  "\u2581\u0627\u0644\u0625\u0646\u062a\u0627\u062c": 5098,
  "\u2581campaign": 5099,
  "\u2581X": 5100,
  "\u2581\u0628\u0627\u0644\u0623\u0634\u062e\u0627\u0635": 5101,
  "\u2581Food": 5102,
  "ter": 5103,
  "\u2581Their": 5104,
  "\u2581send": 5105,
  "\u2581\u0644\u0645\u0643\u062a\u0628": 5106,
  "23": 5107,
  "\u0640\u0640\u0640\u0640\u0640": 5108,
  "\u2581\u0628\u0648\u0636\u0648\u062d": 5109,
  "\u2581\u0627\u0644\u0628\u0631\u0627\u0632\u064a\u0644": 5110,
  "49": 5111,
  "\u2581\u0648\u0627\u0644\u0645\u0648\u0627\u0631\u062f": 5112,
  "\u2581Mom": 5113,
  "\u2581\u0647\u0646\u0627\u0644\u0643": 5114,
  "\u2581reservations": 5115,
  "\u2581\u0648\u0644\u062c\u0646\u0629": 5116,
  "\u0642\u0631": 5117,
  "\u2581\u0627\u0646\u062a\u0638\u0631": 5118,
  "\u2581\u0627\u0644\u0647\u0627\u062a\u0641": 5119,
  "la": 5120,
  "\u0645\u0644": 5121,
  "\u2581married": 5122,
  "\u2581\u0645\u0648\u0627\u062c\u0647\u0629": 5123,
  "\u2581\u0627\u0644\u062f\u0639\u0648\u0629": 5124,
  "\u2581reforms": 5125,
  "\u2581\u0627\u0644\u0643\u0631\u0628\u0648\u0646": 5126,
  "\u2581\u0623\u0645\u0631\u0627": 5127,
  "\u2581candidates": 5128,
  "\u2581\u0644\u0625\u0639\u0627\u062f\u0629": 5129,
  "\u0628\u0627\u0631": 5130,
  "\u2581\u062a\u0630\u0643\u0631": 5131,
  "\u2581\u0663\u0660": 5132,
  "\u2581\u0627\u0644\u0623\u062f\u0644\u0629": 5133,
  "\u2581\u062f\u0639\u0645\u0627": 5134,
  "\u2581eat": 5135,
  "\u2581\u064a\u062f": 5136,
  "\u0631\u0627\u0641": 5137,
  "\u2581decide": 5138,
  "\u2581Rule": 5139,
  "\u2581\u0648\u0647\u0645": 5140,
  "\u258116.": 5141,
  "\u2581\u0628\u062a\u0642\u0631\u064a\u0631": 5142,
  "\u2581reconciliation": 5143,
  "\u2581\u0627\u0644\u0645\u0647\u0645\u0629": 5144,
  "\u2581direction": 5145,
  "\u2581\u0645\u0633": 5146,
  "\u2581respectively": 5147,
  "\u2581\u0627\u0644\u062f\u062e\u0648\u0644": 5148,
  "\u2581\u062d\u0635\u0648\u0644": 5149,
  "\u2581zone": 5150,
  "\u2581Will": 5151,
  "\u2581quite": 5152,
  "\u2581affect": 5153,
  "\u2581endorsed": 5154,
  "Signed": 5155,
  "\u2581\u0625\u0642\u0644\u064a\u0645": 5156,
  "\u2581\u0627\u0644\u0642\u064a\u0645\u0629": 5157,
  "\u2581leaving": 5158,
  "\u2581\u0631\u0628": 5159,
  "\u2581Parliament": 5160,
  "\u2581\u0648\u0623\u0648\u062f": 5161,
  "\u2581functioning": 5162,
  "\u2581\u064a\u0639\u064a\u0634\u0648\u0646": 5163,
  "21": 5164,
  "\u2581\u0648\u0644\u0643\u0646\u0647\u0627": 5165,
  "\u2581seems": 5166,
  "\u0631\u0649": 5167,
  "\u2581alleged": 5168,
  "sixth": 5169,
  "\u2581\u062a\u062c\u0639\u0644": 5170,
  "\u2581\u0635\u062d\u0629": 5171,
  "\u2581defence": 5172,
  "\u2581Day": 5173,
  "\u2581tasks": 5174,
  "vi": 5175,
  "\u2581sentence": 5176,
  "\u2581\u0641\u062a": 5177,
  "fifth": 5178,
  "\u25811373": 5179,
  "\u2581\u0642\u0631\u0631": 5180,
  "\u2581\u0663\u0661": 5181,
  "\u2581except": 5182,
  "38": 5183,
  "\u2581substantial": 5184,
  "\u2581OK": 5185,
  "\u2581\u0627\u0644\u0648\u062d\u064a\u062f\u0629": 5186,
  "\u2581categories": 5187,
  "\u062c\u0644": 5188,
  "\u2581top": 5189,
  "\u2581\u062a\u0631\u064a\u062f\u064a\u0646": 5190,
  "\u0648\u064a\u0644": 5191,
  "\u2581\u0642\u0628\u0631\u0635": 5192,
  "\u2581Nigeria": 5193,
  "\u2581values": 5194,
  "\u2581\u0645\u062a\u0648\u0633\u0637": 5195,
  "\u2581calling": 5196,
  "\u2581highlighted": 5197,
  "\u2581\u0648\u0627\u0644\u0645\u0627\u0644\u064a\u0629": 5198,
  "\u2581\u0634\u064a": 5199,
  "\u2581existence": 5200,
  "\u2581\u0623\u0645\u064a\u0646": 5201,
  "\u2581structures": 5202,
  "\u2581\u0627\u0644\u0633\u0627\u062f\u0633": 5203,
  "time": 5204,
  "\u2581\u0627\u0644\u062c\u0648\u064a": 5205,
  "\u2581subsidiary": 5206,
  "\u258166": 5207,
  "\u2581daughter": 5208,
  "\u2581indicate": 5209,
  "\u2581\u0642\u0628\u0648\u0644": 5210,
  "\u2581\u0627\u0644\u062a\u0641\u0627\u0648\u0636": 5211,
  "\u2581investigations": 5212,
  "\u2581\u062a\u0635\u0644": 5213,
  "\u2581observed": 5214,
  "\u2581\u0648\u0627\u0644\u0632\u0631\u0627\u0639\u0629": 5215,
  "\u2581Official": 5216,
  "\u2581\u0633\u0648\u0621": 5217,
  "\u2581Darfur": 5218,
  "\u2581\u0628\u0627\u0639\u062a\u0645\u0627\u062f": 5219,
  "ie": 5220,
  "\u2581granted": 5221,
  "\u2581Jerusalem": 5222,
  "\u2581ones": 5223,
  "\"\u061f": 5224,
  "\u2581\u0646\u0642\u0637\u0629": 5225,
  "\u2581wishes": 5226,
  "\u2581listed": 5227,
  "\u2581\u0628\u0641\u064a\u0631\u0648\u0633": 5228,
  "\u2581\u0628\u0644\u063a\u062a": 5229,
  "\u2581sought": 5230,
  "\u2581\u0639\u0627\u0645\u0644": 5231,
  "\u2581responses": 5232,
  "\u2581marine": 5233,
  "\u2581\u0628\u0623\u0646\u0643": 5234,
  "\u2581\u0645\u0634": 5235,
  "\u2581Jehovah": 5236,
  "\u2581\u062a\u0631\u0645\u064a": 5237,
  "\u2581requirement": 5238,
  "\u2581\u0627\u0644\u0627\u0633\u062a\u062e\u062f\u0627\u0645": 5239,
  "78": 5240,
  "\u062a\u0631": 5241,
  "\u2581\u0644\u0639\u0645\u0644\u064a\u0629": 5242,
  "\u2581\u0647\u0627\u0621": 5243,
  "\u2581\u062f\u0627\u0631\u0641\u0648\u0631": 5244,
  "\u2581\u0627\u0644\u0628\u0631\u0644\u0645\u0627\u0646": 5245,
  "\u2581vital": 5246,
  "\u2581Control": 5247,
  "\u2581\u062a\u0628\u064a\u0646": 5248,
  "\u0633\u064a\u0631": 5249,
  "\u2581save": 5250,
  "\u2581Indigenous": 5251,
  "\u2581\u0628\u062d\u0645\u0627\u064a\u0629": 5252,
  "\u2581\u063a\u0632\u0629": 5253,
  "58": 5254,
  "\u2581forum": 5255,
  "\u2581\u0627\u0644\u0625\u0631\u0647\u0627\u0628\u064a\u0629": 5256,
  "\u2581message": 5257,
  "\u2581\u0627\u0644\u0642\u0636\u0627\u0629": 5258,
  "\u2581\u0644\u062a\u0645\u0648\u064a\u0644": 5259,
  "\u2581played": 5260,
  "\u2581book": 5261,
  "2-": 5262,
  "\u25812010,": 5263,
  "\u2581\u0623\u0643\u0646": 5264,
  "\u2581Croatia": 5265,
  "\u2581\u062a\u062a\u0646\u0627\u0648\u0644": 5266,
  "\u2581\u062c\u0644\u0633\u0627\u062a": 5267,
  "\u2581\u0627\u0644\u0634\u0631\u0643\u0629": 5268,
  "\u2581Prime": 5269,
  "\u2014": 5270,
  "\u2581\u0645\u0647\u0627\u0645": 5271,
  "\u2581\u0644\u0642\u0627\u0646\u0648\u0646": 5272,
  "\u2581constitutional": 5273,
  "\u2581Open": 5274,
  "65": 5275,
  "\u2581\u0628\u063a\u0631\u0636": 5276,
  "\u2581\u0628\u064a\u062a": 5277,
  "\u0637\u0631": 5278,
  "\u2581sharing": 5279,
  "\u2581\u0628\u0627\u0643\u0633\u062a\u0627\u0646": 5280,
  "\u2581\u062a\u062a\u0637\u0644\u0628": 5281,
  "\u2581creating": 5282,
  "\u0633\u0631": 5283,
  "\u2581considering": 5284,
  "\u2581Fifty": 5285,
  "\u2581\u0623\u0642\u0635\u0649": 5286,
  "75": 5287,
  "\u2581\u0625\u0646\u062c\u0627\u0632": 5288,
  "\u2581l": 5289,
  "\u2581\u0627\u0644\u062a\u0643\u0644\u0641\u0629": 5290,
  "\u0627\u0644\u0628\u0646\u062f": 5291,
  "\u2581\u062a\u0623\u062a\u064a": 5292,
  "\u0635\u062d": 5293,
  "\u0627\u0646\u064a": 5294,
  "\u2581\u0648\u0627\u0644\u0646\u0633\u0627\u0621": 5295,
  "\u2581delay": 5296,
  "\u2581\u062a\u0628\u062f\u0623": 5297,
  "ce": 5298,
  "\u2581Morocco": 5299,
  "\u2581\u0627\u0644\u0639\u0644\u0627\u0642\u0629": 5300,
  "\u2581\u062a\u0635\u0648\u064a\u062a": 5301,
  "\u2581\u0645\u0635\u062f\u0631": 5302,
  "\u2581migrants": 5303,
  "\u2581\u064a\u0643\u0641\u0644": 5304,
  "\u2581(2001)": 5305,
  "\u2581\u0627\u0644\u0642\u0628\u0636": 5306,
  "\u2581\u0623\u062f\u0646\u0649": 5307,
  "\u0627\u0639": 5308,
  "\u2581\u0627\u0644\u062d\u0627\u062f\u064a": 5309,
  "\u2581\u0648\u0642\u0627\u0646\u0648\u0646": 5310,
  "\u2581trends": 5311,
  "\u2581executive": 5312,
  "\u2581\u0627\u0644\u0642\u064a\u0648\u062f": 5313,
  "05": 5314,
  "\u2581begin": 5315,
  "ent": 5316,
  "ol": 5317,
  "\u2581forth": 5318,
  "\u2581outstanding": 5319,
  "\u2581\u0633\u0639\u064a\u062f": 5320,
  "\u2581\u0641\u062a\u0627\u0629": 5321,
  "\u00e9": 5322,
  "\u2581\u0627\u0644\u0648\u0632\u0627\u0631\u064a": 5323,
  "continued": 5324,
  "\u2581\u0661\u0666": 5325,
  "\u2581\u0622\u0633\u0641\u0629": 5326,
  "\u2581\u0648\u0645\u0646\u0630": 5327,
  "\u2581\u0627\u0644\u0636\u0631\u0648\u0631\u064a\u0629": 5328,
  "\u2581industrial": 5329,
  "\u2581release": 5330,
  "\u2581\u0627\u0644\u0639\u0645\u0631": 5331,
  "\u2581Refugees": 5332,
  "\u2581\u0627\u0644\u0637": 5333,
  "WG": 5334,
  "\u2581nationality": 5335,
  "\u0631\u0642": 5336,
  "\u064a\u0646\u0627": 5337,
  "\u2581formulation": 5338,
  "\u2581\u064a\u062a\u064a\u062d": 5339,
  "\u2581\u0627\u0644\u062c\u064a\u0634": 5340,
  "\u2581\u0633\u0644\u0633\u0644\u0629": 5341,
  "\u2581\u0627\u0644\u0646\u0627\u062a\u062c": 5342,
  "\u2581\u0645\u0646\u062a\u0635\u0641": 5343,
  "\u2581supplies": 5344,
  "\u2581\u0628\u0634\u062f\u0629": 5345,
  "\u2581\u0644\u0644\u0627\u062a\u062d\u0627\u062f": 5346,
  "\u2581preventing": 5347,
  "\u2581De": 5348,
  "\u2581otherwise": 5349,
  "\u2581\u0628\u0639\u064a\u062f\u0627": 5350,
  "\u2581realization": 5351,
  "\u2581\u0625\u062f\u062e\u0627\u0644": 5352,
  "\u2581exist": 5353,
  "\u2581Most": 5354,
  "\u2581VI": 5355,
  "\u2581\u064a\u0631\u0649": 5356,
  "\u2581networks": 5357,
  "\u2581C\u00f4t": 5358,
  "\u2581\u0627\u0644\u0639\u0631\u0636": 5359,
  "\u2581\u0631\u0648\u0627\u0646\u062f\u0627": 5360,
  "\u2581\u0627\u0644\u063a\u0630\u0627\u0621": 5361,
  "\u2581\u0623\u0648\u0644\u0648\u064a\u0629": 5362,
  "\u2581\u0633\u0646\u0648\u064a\u0627": 5363,
  "\u258118.": 5364,
  "\u2581\u0639\u0645": 5365,
  "\u2581\u0641\u0639\u0644\u0647": 5366,
  "\u2581himself": 5367,
  "\u2581\u0644\u0644\u0646\u0633\u0627\u0621": 5368,
  "\u258117.": 5369,
  "\u2581Thus": 5370,
  "\u2581\u062a\u062d\u0635\u0644": 5371,
  "\u2581completion": 5372,
  "\u2581\u0631\u0624\u064a\u0629": 5373,
  "rs": 5374,
  "\u2581draw": 5375,
  "\u2581entered": 5376,
  "\u2581subprogramme": 5377,
  "\u2581\u0627\u0644\u0623\u0648\u0644\u0648\u064a\u0627\u062a": 5378,
  "\u0644\u0628": 5379,
  "\u2581\u0623\u062d\u062a\u0627\u062c": 5380,
  "\u2581OHCHR": 5381,
  "95": 5382,
  "\u2581thanks": 5383,
  "\u2581allegations": 5384,
  "\u2581\u0627\u0644\u0632\u0631\u0627\u0639\u0629": 5385,
  "\u0627\u0644\u0645\u0645\u0644\u0643\u0629": 5386,
  "\u2581\u0627\u0644\u0631\u0627\u0647\u0646\u0629": 5387,
  "\u2581\u0625\u062d\u0631\u0627\u0632": 5388,
  "\u2581\u0627\u0646\u062a\u062e\u0627\u0628": 5389,
  "\u2581populations": 5390,
  "\u2581considers": 5391,
  "\u062f\u0648\u0631": 5392,
  "03": 5393,
  "\u2581\u0627\u0644\u0628\u0634\u0631": 5394,
  "\u2581globalization": 5395,
  "\u2581\u0627\u0644\u062c\u0632\u0627\u0621\u0627\u062a": 5396,
  "\u2581\u0648\u062a\u0631\u062f": 5397,
  "\u2581\u0648\u062d\u062f\u0627\u062a": 5398,
  "56": 5399,
  "\u258167": 5400,
  "\u2581\u0627\u0644\u062f": 5401,
  "\u2581changed": 5402,
  "\u2581\u0627\u0644\u0645\u062a\u0643\u0627\u0645\u0644\u0629": 5403,
  "\u2581\u0627\u0644\u062f\u0631\u0627\u0633\u0627\u062a": 5404,
  "\u2581\u0644\u064a\u0628\u0631\u064a\u0627": 5405,
  "\u2581Chile": 5406,
  "\u2581equitable": 5407,
  "\u2581price": 5408,
  "\u2581\u0627\u0639\u0631\u0641": 5409,
  "\u2581amended": 5410,
  "\u2581\u0627\u0644\u0645\u0637\u0627\u0644\u0628\u0629": 5411,
  "\u2581internally": 5412,
  "66": 5413,
  "\u2581dissemination": 5414,
  "\u2581added": 5415,
  "\u2581produced": 5416,
  "ry": 5417,
  "\u2581\u0623\u0644\u0645": 5418,
  "\u2581\u0627\u0631\u064a\u062f": 5419,
  "\u2581\u0627\u0644\u0627\u0646\u0636\u0645\u0627\u0645": 5420,
  "\u2581Spanish": 5421,
  "\u2581\u0648\u0627\u0644\u0627": 5422,
  "\u2581\u0627\u0644\u0637\u0644\u0628\u0627\u062a": 5423,
  "\u2581thirty": 5424,
  "\u062c\u0645\u0647\u0648\u0631\u064a\u0629": 5425,
  "\u2581\u0644\u0644\u0627\u062a\u0641\u0627\u0642\u064a\u0629": 5426,
  "\u2581\u062a\u0644\u0642\u064a": 5427,
  "\u258168": 5428,
  "\u0639\u0642\u062f": 5429,
  "\u2581\u0627\u0644\u0628\u0646\u0648\u062f": 5430,
  "\u2581\u0627\u062a\u062e\u0630\u062a\u0647\u0627": 5431,
  "\u2581\u0648\u0627\u0644\u0635\u064a\u0646": 5432,
  "\u2581\u062a\u0636\u0645\u0646": 5433,
  "\u2581\u0628\u0648\u0631\u0648\u0646\u062f\u064a": 5434,
  "\u2581\u0627\u0644\u0645\u0642\u0628\u0644": 5435,
  "\u2581statistical": 5436,
  "\u2581Following": 5437,
  "\u2581Field": 5438,
  "\u2581\u0648\u0633\u064a\u0644\u0629": 5439,
  "\u2581\u0627\u0644\u062d\u0638\u0631": 5440,
  "\u2581\u062a\u0631\u0643\u0632": 5441,
  "\u0645\u0639": 5442,
  "\u2581delivered": 5443,
  "\u2581\u0628\u0627\u0644\u0642\u0631\u0627\u0631": 5444,
  "\u2581accept": 5445,
  "\u2581\u0648\u0644\u0647\u0630\u0627": 5446,
  "\u2581watch": 5447,
  "wide": 5448,
  "\u2581\u062d\u0635\u0644": 5449,
  "\u2581partner": 5450,
  "\u2581\u0625\u0644\u064a\u0643": 5451,
  "\u0627\u0626\u064a\u0629": 5452,
  "57": 5453,
  "\u2581\u0648\u0627\u0644\u062f\u064a": 5454,
  "\u2581Ethiopia": 5455,
  "\u0643\u064a\u0641": 5456,
  "\u064a\u062a\u0647": 5457,
  "\u2581\u062a\u062a\u064a\u062d": 5458,
  "\u2581offered": 5459,
  "\u2581lessons": 5460,
  "\u2581\u0648\u0623\u0639\u0631\u0628\u062a": 5461,
  "41": 5462,
  "\u25812010\u060c": 5463,
  "\u2581\u0627\u0644\u0639\u0645\u0627\u0644\u0629": 5464,
  "\u2581\u0646\u0645\u0648": 5465,
  "\u2581\u062f\u0631\u0627\u0633\u064a\u0629": 5466,
  "\u2581\u0644\u0639\u0645\u0644\u064a\u0627\u062a": 5467,
  "\u2581\u0627\u0644\u0633\u064a\u0627\u0631\u0629": 5468,
  "\u2581\u0627\u0644\u0632": 5469,
  "\u2581\u0645\u062d\u0627\u0648\u0644\u0629": 5470,
  "\u2581highly": 5471,
  "\u2581\u0633\u064a\u0631": 5472,
  "\u2581arising": 5473,
  "\u2581\u0628\u062d\u062b": 5474,
  "\u2581\u0648\u0627\u0644\u062b\u0644\u0627\u062b\u064a\u0646": 5475,
  "\u2581Calls": 5476,
  "\u2581\u062f\u0639\u0648\u0629": 5477,
  "\u2581Session": 5478,
  "\u2581\u0660\u0660\u0660": 5479,
  "\u2581institution": 5480,
  "\u2581\u0627\u0644\u0639\u0648\u0644\u0645\u0629": 5481,
  "\u2581\u0627\u0644\u062a\u062d\u0642\u064a\u0642\u0627\u062a": 5482,
  "\u2581Drugs": 5483,
  "\u2581visits": 5484,
  "\u2581setting": 5485,
  "\u2581\u0644\u0644\u062d\u062f": 5486,
  "\u2581\u0648\u0642\u062f\u0645\u062a": 5487,
  "\u2581\u062a\u0646": 5488,
  "\u2581\u0627\u0644\u0645\u0646\u0627\u0632\u0639\u0627\u062a": 5489,
  "U": 5490,
  "\u2581\u062a\u062e\u0635\u064a\u0635": 5491,
  "\u2581\u062c\u0631\u062a": 5492,
  "\u2581failed": 5493,
  "32": 5494,
  "\u2581\u062a\u0648\u0627\u0641\u0631": 5495,
  "\u2581\u0628\u0623\u0647\u0645\u064a\u0629": 5496,
  "\u2581\u0645\u062c\u0645\u0648\u0639\u0627\u062a": 5497,
  "\u2581racism": 5498,
  "\u2581\u0627\u0646\u0639\u0642\u0627\u062f": 5499,
  "\u2581\u0645\u0639\u0627\u0645\u0644\u0629": 5500,
  "\u2581enjoy": 5501,
  "determination": 5502,
  "ism": 5503,
  "\u2581\u062d\u0648\u0627\u0631": 5504,
  "\u2581\u062d\u0642\u064a\u0642\u0629": 5505,
  "\u2581\u0627\u0644\u0634\u0643\u0644": 5506,
  "\u2581\u0628\u0627\u062a\u062e\u0627\u0630": 5507,
  "\u2581\u0627\u0644\u0645\u062d\u062f\u062f": 5508,
  "\u2581\u0627\u0644\u0645\u062a\u0643\u0627\u0645\u0644": 5509,
  "\u2581Forms": 5510,
  "\u2581\u0623\u0633\u0627\u0644\u064a\u0628": 5511,
  "\u2581\u062d\u0633\u0627\u0628\u0627\u062a": 5512,
  "\u2581Britain": 5513,
  "\u2581Finland": 5514,
  "\u2581\u0644\u062c\u0645\u0647\u0648\u0631\u064a\u0629": 5515,
  "\u2581\u064a\u062c\u0639\u0644": 5516,
  "\u2581faced": 5517,
  "\u2581amendments": 5518,
  "\u2581interpretation": 5519,
  "\u2581\u0627\u0644\u0636\u0648\u0621": 5520,
  "\u2581John": 5521,
  "\u2581diplomatic": 5522,
  "\u2581\u0627\u0644\u064a\u0648\u0646\u064a\u062f\u0648": 5523,
  "\u2581\u0623\u0639\u0631\u0628\u062a": 5524,
  "ling": 5525,
  "rd": 5526,
  "\u2581Over": 5527,
  "\u2581\u0625\u0644\u063a\u0627\u0621": 5528,
  "\u2581eradication": 5529,
  "\u2581\u0645\u0624\u0634\u0631\u0627\u062a": 5530,
  "\u2581identification": 5531,
  "\u2581\u0648\u062b\u0645\u0629": 5532,
  "\u2581nations": 5533,
  "\u2581\u0648\u0627\u0644\u0635\u062d\u0629": 5534,
  "\u2581\u062a\u062d\u0648\u0644": 5535,
  "\u2581\u0648\u0627\u0644\u062a\u0648\u0635\u064a\u0627\u062a": 5536,
  "\u2581\u062f\u0648\u0631\u0627": 5537,
  "\u2581\u0627\u0644\u0646\u0641\u0627\u064a\u0627\u062a": 5538,
  "\u2581\u0635\u0648\u062a": 5539,
  "\u2581\u062a\u0645\u062a": 5540,
  "\u2581\u0627\u0644\u0644\u0630\u064a\u0646": 5541,
  "\u25812004-2005": 5542,
  "\u2581\u0646\u0641\u0633\u064a": 5543,
  "\u2581Developing": 5544,
  "\u2581numbers": 5545,
  "\u2581gun": 5546,
  "ended": 5547,
  "\u2581\u0627\u0639\u062a\u0628\u0627\u0631\u0647\u0627": 5548,
  "\u2581\u0635\u0627\u062d\u0628\u0629": 5549,
  "\u2581\u0628\u0623\u0646\u0634\u0637\u0629": 5550,
  "\u2581\u0644\u0644\u0625\u062f\u0627\u0631\u0629": 5551,
  "\u2581carrying": 5552,
  "\u2581thematic": 5553,
  "\u2581\u0625\u0646\u0646\u0627": 5554,
  "\u2581\u0627\u0644\u062d\u0636\u0631\u064a\u0629": 5555,
  "\u2581content": 5556,
  "\u2581\u0633\u0648\u0642": 5557,
  "\u2581\u0644\u0627\u0633\u062a\u0639\u0631\u0627\u0636": 5558,
  "\u2581join": 5559,
  "\u2581\u0627\u0644\u0627\u0645\u0631": 5560,
  "\u2581game": 5561,
  "\u2581survey": 5562,
  "\u2581\u064a\u0631\u062f": 5563,
  "\u2581\u0627\u0644\u062c": 5564,
  "\u2581\u0646\u0648\u0639\u064a\u0629": 5565,
  "\u2581\u0645\u0648\u0627\u0642\u0639": 5566,
  "\u2581sometimes": 5567,
  "\u2581\u0648\u0644\u0643\u0646\u0647": 5568,
  "\u2581became": 5569,
  "\u2581Ma": 5570,
  "\u2581\u0643\u0628\u0627\u0631": 5571,
  "\u2581\u0627\u0644\u0645\u062d\u0627\u0643\u0645\u0629": 5572,
  "\u2581strongly": 5573,
  "\u062d\u064a": 5574,
  "\u2581\u0627\u0644\u0646\u0632\u0627\u0639\u0627\u062a": 5575,
  "\u2581\u0627\u0644\u0645\u0635\u062f\u0631": 5576,
  "by": 5577,
  "ur": 5578,
  "\u2581\u0648\u0627\u0644\u0648\u0644\u0627\u064a\u0627\u062a": 5579,
  "\u0627\u0626\u0647": 5580,
  "\u2581\u0627\u0644\u0645\u0644\u0627\u062d\u0638\u0627\u062a": 5581,
  "\u2581race": 5582,
  "\u2581commissions": 5583,
  "\u2581\u0648\u0637\u0644\u0628\u062a": 5584,
  "\u2581\u062d\u064a\u0627\u062a\u064a": 5585,
  "\u2581grave": 5586,
  "\u2581Finally": 5587,
  "\u2581\u062e\u0637\u064a\u0631\u0629": 5588,
  "\u2581\u0648\u062a\u0648\u0635\u064a": 5589,
  "\u2581\u0641\u0627": 5590,
  "\u2581\u0645\u0647\u0645": 5591,
  "\u2581heads": 5592,
  "\u2581accounting": 5593,
  "\u2581availability": 5594,
  "\u2581\u0627\u0644\u0645\u0631\u0627\u0641\u0642": 5595,
  "\u2581concluding": 5596,
  "\u25815,": 5597,
  "\u25811998,": 5598,
  "\u2581\u0627\u0644\u0627\u0633\u062a\u0639\u0645\u0627\u0631": 5599,
  "\u2581\u0627\u0644\u0630\u0649": 5600,
  "\u2581\u0627\u0644\u0623\u062d\u0645\u0631": 5601,
  "\u2581\u0623\u062f\u0627\u0629": 5602,
  "\u2581beautiful": 5603,
  "\u2581\u0627\u0644\u063a\u0630\u0627\u0626\u064a": 5604,
  ")!": 5605,
  "\u2581\u0627\u0644\u0628\u062f\u0627\u064a\u0629": 5606,
  "\u2581\u0627\u0644\u0625\u062f\u0645\u0627\u062c": 5607,
  "\u2581\u0627\u0644\u0633\u0641\u064a\u0631": 5608,
  "\u2581Iraqi": 5609,
  "\u2581\u0634\u062a\u0649": 5610,
  "\u2581\u0645\u0645\u062b\u0644\u0648": 5611,
  "\u2581\u0661\u0668": 5612,
  "\u2581sleep": 5613,
  "\u2581seem": 5614,
  "\u2581comply": 5615,
  "\u2581\u0627\u0644\u062d\u0641\u0627\u0638": 5616,
  "\u0628\u0627\u0628": 5617,
  "\u2581\u0627\u0644\u0641\u0639\u0644\u064a": 5618,
  "\u25812011.": 5619,
  "\u2581\u064a\u0648\u063a\u0648\u0633\u0644\u0627\u0641\u064a\u0627": 5620,
  "\u2581\u0661\u0667": 5621,
  "\u2581tool": 5622,
  "\u2581\u0648\u0627\u0644\u062e\u0645\u0633\u0648\u0646": 5623,
  "\u2581\u064a\u0641\u0639\u0644": 5624,
  "\u062a\u0643\u0645": 5625,
  "\u2581bank": 5626,
  "\u2581complaints": 5627,
  "\u2581IAEA": 5628,
  "\u2581\u0648\u0645\u0646\u0639": 5629,
  "\u062c\u0648": 5630,
  "\u2581\u062a\u062d\u062b": 5631,
  "\u2581\u0627\u0644\u0645\u0633": 5632,
  "\u2581pointed": 5633,
  "\u2581clean": 5634,
  "\u2581ratified": 5635,
  "\u2581\u0642\u0627\u0639\u0629": 5636,
  "\u2581\u0646\u0641\u0642\u0627\u062a": 5637,
  "\u2581\u062f\u062e\u0644": 5638,
  "\u2581\u0625\u062a\u0627\u062d\u0629": 5639,
  "68": 5640,
  "\u2581\u0643\u0648\u0646": 5641,
  "\u0631\u0627\u0645": 5642,
  "\u0631\u0643": 5643,
  "\u2581\u0627\u062a\u0628\u0627\u0639": 5644,
  "98": 5645,
  "\u2581\u0627\u0644\u062a\u0623\u0645\u064a\u0646": 5646,
  "\u2581\u0645\u0639\u0647\u062f": 5647,
  "\u2581\u0627\u0644\u0633\u062c\u0648\u0646": 5648,
  "\u2581\u0627\u0644\u0645\u0644\u0627\u0626\u0645\u0629": 5649,
  "\u2581\u0639\u0638\u064a\u0645": 5650,
  "\u0628\u0646": 5651,
  "\u2581supports": 5652,
  "\u2581\u0627\u0644\u0627\u0633\u062a\u0626\u0645\u0627\u0646\u064a": 5653,
  "\u2581\u0648\u0627\u0644\u062f\u0639\u0645": 5654,
  "\u2581\u0627\u0644\u0642\u0633\u0631\u064a": 5655,
  "\u0645\u062f": 5656,
  "\u258110-": 5657,
  "88": 5658,
  "\u2581\u0627\u0644\u0645\u0633\u062a\u062e\u062f\u0645\u0629": 5659,
  "\u2581original": 5660,
  "\u2581\u062c\u0645\u064a\u0644": 5661,
  "\u2581Ah": 5662,
  "\u2581\u0627\u0644\u0641\u0636\u0627\u0626\u064a\u0629": 5663,
  "\u2581accused": 5664,
  "\u2581\u0627\u0644\u0645\u0639\u0648\u0646\u0629": 5665,
  "\u2581\u0627\u0644\u062c\u0645\u0647\u0648\u0631": 5666,
  "\u2581\u0627\u0644\u0645\u0630\u0643\u0648\u0631": 5667,
  "\u2581Scientific": 5668,
  "\u2581\u0631\u0627\u0628\u0639\u0627": 5669,
  "CRP": 5670,
  "\u2581\u0627\u0639\u062a": 5671,
  "\u2581Excuse": 5672,
  "\u2581\u0627\u0644\u062a\u0639\u0628\u064a\u0631": 5673,
  "\u2581\u0633\u0644\u0627\u0645": 5674,
  "\u2581components": 5675,
  "\u2581names": 5676,
  "\u2581\u0627\u0644\u0634\u0641\u0627\u0641\u064a\u0629": 5677,
  "\u25816-": 5678,
  "\u25811999.": 5679,
  "\u2581\u0627\u0644\u0625\u062d\u0635\u0627\u0626\u064a\u0629": 5680,
  "\u2581Fourth": 5681,
  "\u2581\u0627\u0644\u0648": 5682,
  "\u25812008-2009": 5683,
  "\u2581experiences": 5684,
  "\u2581proper": 5685,
  "\u2581\u062a\u062a\u062d\u062f\u062b": 5686,
  "76": 5687,
  "\u25812006-2007": 5688,
  "\u2581\u062a\u0639\u0644\u064a\u0645": 5689,
  "\u2581\u0641\u062a\u062d": 5690,
  "economic": 5691,
  "\u2581\u0639\u0642\u0648\u0628\u0629": 5692,
  "\u2581\u0639\u0627\u0644\u0645\u064a": 5693,
  "\u2581Total": 5694,
  "\u2581\u0644\u0623\u0646\u0647\u0627": 5695,
  "\u2581presentation": 5696,
  "\u2581\u0627\u0644\u0627\u0646\u062a\u062e\u0627\u0628\u064a\u0629": 5697,
  "\u2581considerable": 5698,
  "\u2581gets": 5699,
  "\u2581Principles": 5700,
  "\u2581\u0627\u0644\u0623\u062c\u0647\u0632\u0629": 5701,
  "\u2581\u0648\u0627\u0633\u062a\u062e\u062f\u0627\u0645": 5702,
  "ra": 5703,
  "\u2581\u062a\u0631\u0643\u064a\u0632": 5704,
  "\u2581assessed": 5705,
  "\u2581\u0644\u0644\u0641\u0631\u064a\u0642": 5706,
  "\u2581Its": 5707,
  "\u2581engagement": 5708,
  "\u2581agriculture": 5709,
  "\u2581\u0634\u0623\u0646\u0647\u0627": 5710,
  "\u2581\u0648\u0639\u0646\u062f\u0645\u0627": 5711,
  "\u2581couple": 5712,
  "\u2581\u0648\u0643\u0627\u0644\u0629": 5713,
  "\u2581\u0642\u0631\u064a\u0628\u0627": 5714,
  "\u258173": 5715,
  "\u2581Summary": 5716,
  "\u2581\u0648\u062a\u0646\u0638\u064a\u0645": 5717,
  "85": 5718,
  "\u0647\u0648": 5719,
  "\u2581\u0648\u0645\u0646\u0638\u0645\u0627\u062a": 5720,
  "\u25812015": 5721,
  "\u2581\u062a\u062a\u0645": 5722,
  "64": 5723,
  "\u2581\u0627\u0631\u062a\u0643\u0627\u0628": 5724,
  "free": 5725,
[...]
